/**
  ******************************************************************************
  * @file    network_data_params.c
  * @author  AST Embedded Analytics Research Platform
  * @date    Tue Aug 13 17:58:02 2024
  * @brief   AI Tool Automatic Code Generator for Embedded NN computing
  ******************************************************************************
  * Copyright (c) 2024 STMicroelectronics.
  * All rights reserved.
  *
  * This software is licensed under terms that can be found in the LICENSE file
  * in the root directory of this software component.
  * If no LICENSE file comes with this software, it is provided AS-IS.
  ******************************************************************************
  */

#include "network_data_params.h"


/**  Activations Section  ****************************************************/
ai_handle g_network_activations_table[1 + 2] = {
  AI_HANDLE_PTR(AI_MAGIC_MARKER),
  AI_HANDLE_PTR(NULL),
  AI_HANDLE_PTR(AI_MAGIC_MARKER),
};




/**  Weights Section  ********************************************************/
AI_ALIGNED(32)
const ai_u64 s_network_weights_array_u64[2919] = {
  0xc926d50fd30ee0f4U, 0xba2de9fd434214e6U, 0xcf3e31e417332c05U, 0x462f3bce36d6efe8U,
  0xc5c7fbe3c72acc2bU, 0xcdc8073132ca1241U, 0x3ed1c92e46490c22U, 0xf614e5e23132202eU,
  0x2a114aff24eb0afcU, 0xe4b68ae047490affU, 0xe6eb03a88accdba4U, 0x119eab0825278194U,
  0x423fb1f3cee6acb6U, 0xb53dec3a240cb836U, 0x3619fb3db2dd4021U, 0xeab7314a2846dff8U,
  0xe609cfb6edd130e8U, 0x43cb04a2a12d527U, 0x26c1d1452704cb21U, 0xc1c720b8b1bf3245U,
  0x7f5f4fc8a2d7d527U, 0x6ec5fffee516123U, 0x5518c77f387a766bU, 0x57fe035dd5ef0c28U,
  0xb7a0e63159cab6b1U, 0x13bfbaa11ca0c332U, 0x1bf371fc403c317U, 0xd3334e00422d09abU,
  0x4363e7e7634f4aadU, 0x9929e6180df743f5U, 0xdece1fdb5724e73cU, 0xc8262861166fe94aU,
  0xdc8c19bbc8b9a3b2U, 0x2bc21c17b546b839U, 0xd115d434d2d8ec19U, 0xd638b4b521b624f3U,
  0xcd0101c5cc3c181aU, 0xd530f61d3e35c528U, 0x1ee5db15491cccf5U, 0x223fc14528bcf810U,
  0x43baf84043bc45c4U, 0x473ec600dafa26c5U, 0x34fb40203128c7e4U, 0xfa9781f9d08611c2U,
  0xc58ca3f783870db7U, 0x38ec420a07184b1aU, 0xf805d3c226e73626U, 0xe2be5cf27e03a18U,
  0x2e1a32f531373932U, 0xf6e03afa3a161ed4U, 0xdb34e00defc72ce6U, 0xef5ec26fe3bcc00U,
  0x92f12e8f22a14e8U, 0x14fcd108cce7cfccU, 0xf39492e0d00d1ed6U, 0x91a2c4f7bace81d3U,
  0x13ee6851184393d8U, 0xd14a160c2ee8f91bU, 0x21d53e421509d7e3U, 0xc807f536fb43eae2U,
  0x1e00b5e732bd4710U, 0xf2dbc8e428b833e8U, 0x484c40c709cd4e53U, 0xcee945fdcad7dad9U,
  0x10e61fc5f01044d3U, 0x28e3f06c209bd12U, 0xe6830ae8bd898109U, 0x5534d625b0b4eba0U,
  0xa0dc282c1db1160cU, 0x53c10b18b638eac1U, 0x4fff46e31d60652fU, 0x62dd0ddde59926ddU,
  0xac647d969fdbf22U, 0x44ecb18f65b3eb0U, 0x65128f4a62d49abU, 0xd65209c5a717fba7U,
  0xd4e21a2fa4b1a9e8U, 0x601c2c2de35ee47fU, 0xbb6a717415735472U, 0xd1e2f756ffe544d3U,
  0xb9f6554e07243236U, 0xbd4e3857cbbcf160U, 0xad25c7214bc35401U, 0x4b043f05d92c5408U,
  0xe4330e50ecad811U, 0xbd08ca3db6e6f5daU, 0xc616df1f17ddff1cU, 0xf127fee3c2a936aeU,
  0x86cbab89deea5716U, 0x819a841d04c494caU, 0x928012828e5b90fU, 0xfccce8f419e541e5U,
  0xe7c5f4e727221448U, 0x330fd4e9cd3bc2e6U, 0xc0fc0f49193f4de6U, 0x19f7f906c117fb43U,
  0x26e01e5118dfe1fcU, 0xc8d33eceeccedddbU, 0xf0c2163eec270a0dU, 0x7ff305100ad34045U,
  0x3b4101256f2306f7U, 0xaee3c2a6b6e65f09U, 0xfae106a1fe962ab6U, 0xb0b08b8e830f2ffU,
  0x22c71d413f181fc4U, 0x403d3f2fadd20aecU, 0xa6d4351fdae61cceU, 0xc3334ee8e8463ae0U,
  0x18b8f7192e1af51cU, 0x3dd3cbf4afe222d7U, 0x362741b4bf243729U, 0x2c6cfb7f3075fa4cU,
  0xf608031965ede6e6U, 0x662687e604a37cdU, 0x1a63296bae55f2U, 0x6561de666a0ff4eU,
  0x2e5e1a2769ba49ddU, 0x1af56b32645a73a9U, 0xf0017cbd5d7ee64U, 0xeca09af814171d31U,
  0x36a895cbd33fd4e9U, 0xb7b7513c381953b8U, 0x4039274e7e453a16U, 0xea25417f727b7e49U,
  0x3708f61a2061c85cU, 0x2af51abee9d7ffb6U, 0xee1cf52b084347b7U, 0x2d3642b6f731520eU,
  0xdd2cdc29f34134a1U, 0xf151e3b04d2a2b20U, 0x14bc5000f8a32cf5U, 0x1bd233d1f228211eU,
  0xbe0d575f07c13a06U, 0xa681dbdea217ea49U, 0xd0da260f09aa03c2U, 0x36e1e951192c093dU,
  0xb9306b5159d8fabU, 0x1858eed323423c17U, 0x9f4ce9b71ab7ce06U, 0xfd0db7664657f4d6U,
  0xcb54d22bb95314c5U, 0xaaeacde31d2d07b4U, 0x1a28b03936a24ad5U, 0x40e9eedcd8505cf1U,
  0x7f6f154bb02f40e8U, 0xff7c5a504ae2df6eU, 0x3118c6e0731b4bf4U, 0x2b0733f4175d1e4eU,
  0xd40f2a121f29d171U, 0x2e2fc9eebbb10a0fU, 0xa58faebd4caf039U, 0xf3dfb0ce0739d8caU,
  0xcf6a254e49de4256U, 0xc9ce30db1bc0365eU, 0xeb3f4764c34d3c34U, 0x9401f6eece1326adU,
  0xdfc09e83023b8111U, 0x73d4f4dd12e1f1a7U, 0xbdfc19a2157cce4eU, 0xde35a9ec5d4ca43cU,
  0xc63458af0094c7c4U, 0x1d353c29102f02a5U, 0xff8f265f271ade4cU, 0x24894a6e2b27a4fdU,
  0x6e4856b4d31f5891U, 0x50a0c9dd4ff9a944U, 0x73e9ec5ad49c44bbU, 0xe919bce0f844f80aU,
  0x9d1b81c5ffb545bdU, 0x839220ba8140a8c9U, 0x98d426982a87bed5U, 0x5ee5514d38b994f4U,
  0x6d77105515f2543cU, 0x93dc9d24f7e2bcccU, 0x30cf4e02c9d1deebU, 0xcd3546bda0f9f00dU,
  0x1db3c643b6e1a150U, 0x2ba4fd53bdea5451U, 0x12c0c67a1c919aa4U, 0xbc9641325415223U,
  0x58114c7ee94bf1a2U, 0x8155ca9c3baa67c4U, 0x9bf1c26afa7d311U, 0x5560a85a52436a07U,
  0x35a8c8974cdbce39U, 0xac939151b210a525U, 0xa7bda62130d99ed9U, 0xd1b3a52615b242f8U,
  0x300a35fa57b22caeU, 0xd9966d551ff7e1e0U, 0x6d0a7f2df4424a7U, 0x241dd2f311a5a5e1U,
  0xf7a6e5d43c1910c1U, 0xab80ae43506eec3U, 0x4b485711d325e959U, 0xd64d5706af092ac2U,
  0x162ae340fca73a3cU, 0x1eef2315debb260dU, 0x2c1db23bfc25da1aU, 0x5fc0c64de741c94cU,
  0xd5d5ca6033b634c7U, 0xe7b59f99fd10ee13U, 0x67d8507781b412b8U, 0x577f5a62c155dee0U,
  0xa2465ce59f2eed4cU, 0x5b1bb0daa8b3a752U, 0xcd0d7039d86f6a4fU, 0x9a20a314b61af19eU,
  0xa73af7f5f2d2ccb6U, 0x5b3edb185c3304ffU, 0xc99504e8b53dffd7U, 0xffff39b84de0d668U,
  0xa7281cb055b5283eU, 0xfa7113aa3e312d6U, 0xb8e7dff006cdf016U, 0x1c2d53383702025aU,
  0xc70bb9b7c8275545U, 0xedb4d9fab132f152U, 0xad74833e399cdbeU, 0xc204dddc2527bea8U,
  0xdc17a706fdfc1859U, 0x39ac441a1cdf58eaU, 0x5bf929b8e943300cU, 0x681b3218a0851deU,
  0xe71f0b94afd19309U, 0x72df50659b9595d4U, 0xb23b84b5045ec007U, 0xd4a72dcec5d65f6dU,
  0xdb2992382fb92292U, 0xb0ab2663dcd2c4b3U, 0x48334b276e35cbc1U, 0x7b23716ef571a6dU,
  0x4506c14f64efe4aeU, 0xeadc4855e3fc0717U, 0x73a22182a471ddbU, 0x81dfcb9127eaf9d4U,
  0x8109a7f6b91ba6d4U, 0xe9f5c531c299840eU, 0x16e731f0281a27e7U, 0x22b7b6a44b3c3fedU,
  0x2fbf4df6d661570aU, 0x5435393be558f035U, 0x1a2cebe315c7451bU, 0x432bbd3f26a4e0c7U,
  0xfdfa10499c070bd1U, 0x4bce1639dc0eda41U, 0x3bfa50bca645bbb7U, 0xb4a7e346c3b3fc30U,
  0x5cabe2ccbbf0feacU, 0x4ed80e045a2b6aabU, 0xd4c11f51cf1ab608U, 0x3ae618fd2aa333d4U,
  0x4140b3f2bc37c933U, 0xcdecf2da1af4431fU, 0x3cb24c462333490bU, 0x37cdc6aba4c847b2U,
  0x1d9cf4f60713f154U, 0x31fa257f676cd4f4U, 0x237d500817161c07U, 0x29d1edd54598e83bU,
  0xd9f6bd2269e9656fU, 0x561cbd48210d8538U, 0xac8ed1876eb3507aU, 0xed98a3bb23aea651U,
  0xb92052cedfc998b4U, 0x34c7062bd452c6f5U, 0x3a50d28440e1eb29U, 0x1081fb36ffa9afb2U,
  0xf8d7075421636720U, 0x3baf02b9fcf5883bU, 0x71cbb4fbc627bd4eU, 0x1009d51466bcb5d3U,
  0x93baccd6adf0eadbU, 0x3360fb92b2d11bbdU, 0x3d52f24abb4332dfU, 0x57e9ae471f0a11daU,
  0x3927243b2f44f26bU, 0xbe326137f4b79767U, 0x509c53177d7fd5c8U, 0x3abb4e3b22f5c354U,
  0x38a467d24dd1bc47U, 0xf928151e204a1c50U, 0x10eeec31de162fb3U, 0xc4dc3b4321c3ed1dU,
  0xdddb2b093a3e3208U, 0x1a2defbdd8dfa3adU, 0xd408f4fdf715c823U, 0x40fef4b3ef1ce429U,
  0xc2272339c70dca37U, 0xcbe4ccd1481704d7U, 0xf44c2a272636c3c1U, 0xc26257ffd350e68U,
  0x15228ab95b65f9f2U, 0x30021401ccfdac50U, 0xa960511a2c9cf6edU, 0xd25f14eb04f4b4b1U,
  0x17b9b646c9dbff25U, 0xa91c25ef0ad5edc3U, 0x3be3320633cfd9b2U, 0xd75c12bc64cb2854U,
  0x22a5252db439da0aU, 0xd9dc49e9e13e1ea9U, 0x38a53ada04b10981U, 0x5d0c8fdf9bf59fa3U,
  0x9d8e8eb57f6e147aU, 0x9803133cdbeebc8fU, 0x59d53c839a16c266U, 0x1d472fe0c4f22d5eU,
  0xe7b63fc24f2238bcU, 0xaa0032e9c2195330U, 0x9ca3c237633156afU, 0xdbde21c4df9ebcffU,
  0xe8b5681102cb3619U, 0x20f50c28d9cf3226U, 0xf602e80623052c68U, 0x2ec134572a14691aU,
  0xe13859753f6f51f9U, 0x5ce363ebb60e5131U, 0x2d57f350004d36c4U, 0x6adca9e8b3bef2ddU,
  0x7d8e7d27fc2d6d8U, 0x9f01c2fd153366eeU, 0x4a0aaba18fce0469U, 0xdbdec1c826542947U,
  0x376caad3ff732d05U, 0x216506fd603515c2U, 0x8b5373b115a03e0U, 0xa90ccfc229122c81U,
  0x1ceaa08e87015d28U, 0x373356a9c8a65044U, 0x5a68c5a6346df336U, 0x21ac6024e5c2eaU,
  0x950e122a569e0db0U, 0xab34242a982f9d4fU, 0xc0412ef4eae1fdb4U, 0xaf3d455f10413109U,
  0x3aee4b47093547a1U, 0x4146f8014b483a09U, 0xf8d1baeed001c9edU, 0x2bf2d8b24c3604f3U,
  0xbaf1d7425344cd57U, 0x9471c29473dd21fU, 0x52bce958d0cee12aU, 0xe52511eeff012c4U,
  0xc237c94ad5e5d429U, 0x5dd742fe43142617U, 0xae0fec17d2bc03deU, 0xa5e7cbb2f0c314b0U,
  0x1f3aceeb81f6f7efU, 0xf8e34d3bc76028f9U, 0xdfa3023ec3b9c941U, 0x1b1352ef2b23001dU,
  0x81ded28b9f4bef8U, 0xbb391bf3013cd037U, 0xc619fa1b4b1c00e1U, 0x364c3f4242ab2d04U,
  0x2dddc909c90d49d8U, 0x2e21d05d361a07c4U, 0x98ca8183aff60a0aU, 0xa2da13c8c91ec3c2U,
  0x813bd23359c28892U, 0xdbcfbba10d3d4cc3U, 0xffadadb15e18090bU, 0xf4c932be42fe1dd9U,
  0xb7b85b87cf024de4U, 0xc80a14a6aeaea8e6U, 0x229dc6b42af1dd33U, 0xd9f1c362a42313ecU,
  0x214ddcdf1eddf15eU, 0xdfc2d14bdc3cdeeaU, 0xd215f532fd488b94U, 0xa25eb27037ee43ebU,
  0x393fe1510064a8fdU, 0x562cefaca9a0ea42U, 0x230e40e7e39f59e7U, 0x2539681748de18d1U,
  0xa20819ca9f480fcaU, 0x1655f41145c1c4d9U, 0x5ad04ee6d82e3344U, 0xc02471b7f05b5d0U,
  0xe265b0cf0d081c5aU, 0x39c223ba9fe5a521U, 0x5cc0104f1ea1fa12U, 0x303cbff8506e2e87U,
  0xd767f76acb6d58c9U, 0x1495f08f062c46eeU, 0xee9da98f5249136dU, 0x34abf2e138d3430fU,
  0x6446d7e34046ba93U, 0xdaa1c2db4ac7e6e3U, 0x5156c213f152b898U, 0xc70ddf933a348d07U,
  0x1328edfd7068196U, 0xc5832c402e482e92U, 0xd3af09c57863012U, 0x20ed9a4b76ff4f21U,
  0xacd231594c6aa921U, 0xb61c41d7d556a1acU, 0xdfba36ba01a20d1bU, 0x41ed4a8b8461d1a0U,
  0xd4942ee1773fa96dU, 0xc3414a346181c78eU, 0x301b57d633f68e22U, 0xb2c276d83e3c034aU,
  0xac3bbcd163c31e08U, 0xa0b71a0bbf7c6caaU, 0xe8a4d79c488afea5U, 0xc3fd91b716035db2U,
  0xa2190f462cb1e2ffU, 0x6a9f26594818f754U, 0xbc5a0d1a32ca390fU, 0xb0499bcf9e5392cfU,
  0x16dd1b0cb427bfbdU, 0x65bf3a6f766b804U, 0x7d6b0bcf2f12aedaU, 0xe0fc4f6e357f752fU,
  0x44075b5e0fe4024U, 0x2ee8a761775751f1U, 0x9d3448a488e0d27dU, 0xde64d035595532adU,
  0xcdc46e6acca1d40U, 0x35c8bb0fa1fbb8b7U, 0x1fe9bdb91d0054b0U, 0x373292b7d7a99263U,
  0x5c39af73b4b286bU, 0x752d22f5f9d75519U, 0xd002017fefef311aU, 0x55aa24ffc1bab9dbU,
  0x3057234e5803759aU, 0x1fd846faca6ac9dbU, 0x63c525d2f6a63227U, 0xcdc942cfe004a4c6U,
  0x571463eff6e65bc1U, 0xb719e098d10951beU, 0x1ed2a245d5aab948U, 0x4f262b1ea54d5dd7U,
  0xccbd4937ff38d5ebU, 0x9c468104b92b1e30U, 0xe511fda4a32d97a4U, 0x12acc05dbe185892U,
  0xb51059fb7850d01fU, 0x42f6c605e61049dU, 0x706a2f24b6a04557U, 0x8ec92b43de245bc6U,
  0xe3a64821adf34fabU, 0xc2345339fde0d5cU, 0xc474e9da24f3766U, 0x9fe623a090aaf910U,
  0xd4f74be12c0f93c6U, 0x81278cab371645f2U, 0x14f5fd9abddec0caU, 0x2feb2b16ee2023e0U,
  0xcc01e30a10e236e5U, 0xbbc12d1cd6d12d23U, 0x1a0522edfbeed4dfU, 0x1129e3fcf0f2ff05U,
  0x43462c0b4749dbe0U, 0xd1d9ecd8d9dc0f2bU, 0xe3f8ff04d0f708deU, 0x12607f481de2d206U,
  0x403c742c06742949U, 0xe9efd8711f7f6a04U, 0xb3bc053cdeba1beU, 0x1219d9f449db3c1eU,
  0xe40d4415cf1fc346U, 0xad4237bcf940552eU, 0xd71708f70dd60639U, 0x3421ccfa9e3154caU,
  0xe3b33417d0484ca2U, 0x3ec4101ccf2ff1bcU, 0x34ccce3a35a4e3c4U, 0x4f23cd65562f4942U,
  0x2018c3510b0b0fefU, 0x5efc6f77c683747U, 0x214b25712d4bcd3U, 0xfe3c1cd325b4c604U,
  0xf421fb11677f12d8U, 0x3bec12d8d7d932c1U, 0xf34156dbf3b9190dU, 0xf1d11915e402cbd4U,
  0xd0e04ab23d341520U, 0xaac9d6f63616d8f7U, 0xaebf0d1601291608U, 0x9ed5288a34bc8eb3U,
  0xb15734d6b2320cebU, 0xd1dc22bfbefca60bU, 0xaa412d124841abb7U, 0x4654bcb3b7ce3c32U,
  0x4769013507a0dcd9U, 0x18b1be07350437b5U, 0xf5cf184bd0f4de36U, 0xc959243ed0ba2cdbU,
  0x2eb3d5303a04a8c3U, 0x473f590cf0d1a4ddU, 0x1c7f4ee76dc2374bU, 0x91833503500674fU,
  0xae1b1d461cc4d16fU, 0xcefae003d324d902U, 0xb14b2316533419b8U, 0xb64ec9cdabf9f333U,
  0x5710c868b34b18d4U, 0x60e62220b0610167U, 0xabf658b0e20eec5fU, 0x62d949484f23141dU,
  0x32e0d0f2e34512d1U, 0xc1dcc4118193241cU, 0x5cf650eceecf90eaU, 0xb5286416c0a34624U,
  0xac90cfa517d8d322U, 0xa5ca429a94bf419dU, 0x3251e234205b5944U, 0x2d5763ecb49db018U,
  0x55367ee3c649ab63U, 0x9010297dc6c956bcU, 0x90e3e7403b53527fU, 0xe6f6f8416848a208U,
  0x79cff7796a57d92aU, 0xc0e0e90433657568U, 0xbe0fc09db9c3eac8U, 0xff2bb434ad8b0e6U,
  0x10f892bd48f9fc26U, 0xd5b6c45effb3cb48U, 0xb70db4e6df08daa3U, 0xe2f9c7d4cc4f02b0U,
  0x81bb86c2c551ecb6U, 0x9ab4ea65f8e30cdbU, 0xf60b837e53b09f7U, 0xf951fa39fa18eb79U,
  0xc3186d4fb5702f1dU, 0xc81ecfe81cc1d5e4U, 0x19c31fcdf3c90809U, 0x35d82f1720da0e3dU,
  0xc32e06bdd7e3160eU, 0x2d361d1a0617c808U, 0xd2c90f0cf1db40faU, 0xfffac923f0e716f7U,
  0x273d02c6281b021aU, 0x2809cad42c1fcd32U, 0x1010140a391d05feU, 0x7f3f004956753a68U,
  0x111ff5c3c09dc5cfU, 0x2259435b3d235843U, 0xc9a253bba53849baU, 0x24924c4ce04e40e6U,
  0xf999630f8da2afe8U, 0x9794eb4444e56222U, 0x96dd9b58a227cd26U, 0x314204c5a9fbe108U,
  0x39c5949bf13c5c94U, 0xc310ee8b539c219U, 0x12695a654ffa7f77U, 0x1a3bffad679f6625U,
  0x382ed030a781dc09U, 0x40340207e4e816dcU, 0x6ab2bf5999ecc2f2U, 0x91f9ce9b459acdaaU,
  0x9f2cb1de84bdf5e7U, 0xaa4ff6b4a0ce9705U, 0xc3a84c5b4813db14U, 0x11e46610eee031a2U,
  0x19b752df47e357e6U, 0x443834c5fa594ea7U, 0xed15cf92a34ad5e9U, 0xc1739c130b6ceecU,
  0x52112df0f9ed1ff1U, 0xe85cfd47b22bd81cU, 0xebc6dfdd05f52effU, 0xf7d62304bde23a1cU,
  0xc30c23c05741ceeaU, 0xab94d19fed050c6U, 0xc0d154282ab7010eU, 0x34d8ec15134faddcU,
  0x92e5c60cfb81bfdcU, 0x357f18a8a7d0be2fU, 0xd6cb2d1506adbd38U, 0x19cecfeb4f48c6eaU,
  0x324ab9b63d2d34f2U, 0xa1b612e1ea3720e8U, 0x49c1cd15e4d4e6faU, 0x38abfaba3fe44b48U,
  0xe91cacb94c18f915U, 0x45b9a540c855c2b3U, 0xcf1c1724f2d5f5b0U, 0x60040b4e5afc3328U,
  0xe3f7203f42e9dd78U, 0x1599d9633810db6U, 0x3e970345e87438d4U, 0xcdaae1f9a8ae204aU,
  0x5941b38141d5ade2U, 0x26d3023eff0900deU, 0x49b44f0cc765e6b8U, 0x190dba6c491c5fe2U,
  0xa9096165df38e44aU, 0x273aaec63fcf4858U, 0x31502a17baf5b264U, 0xf036411a585c1960U,
  0x62e32c3d422064e8U, 0xe0fabcabc23d9a9U, 0xc2e84125c5392798U, 0xba07ef032620fbbbU,
  0xd8ed27dbbb6311edU, 0x16200245af00c7abU, 0x4f29f32321b95a56U, 0xcb1ef0bccac8d0b2U,
  0x5f20ebe544f94bfcU, 0x2b65e8fc4d0d675dU, 0x1f6b5668f27bf901U, 0x745c5b48d97f162aU,
  0xc85eee5ae1280ae9U, 0x28f5c4ab132fbfe8U, 0x8ec0927bf38f626U, 0x292c133ffe44191eU,
  0xfa396103d7164112U, 0x552a620aecd350f7U, 0x21ab333ad8f45816U, 0x3c4009275323e6b3U,
  0xea565a0538341f2dU, 0xf4161205e00b81cdU, 0xc3d7acc80eb19d98U, 0x1ce13e5a46ef3ad5U,
  0xf7204a13dff42107U, 0xc21ddca52155fc4bU, 0x1dd05228f8aad246U, 0xcd18d2cccbddaf08U,
  0xadf321e9f528e937U, 0xb3a3c0fdcfd0fd3U, 0xbbb9ba58132e034bU, 0xb00d082ff4a5dcdeU,
  0xfeadbefe2ab83cf4U, 0xc5f9e92a81bebc32U, 0x2af956446d346b55U, 0x38fd2ec7d202a2adU,
  0xe7f1f9f5b0fe4bccU, 0xc4230d02fb5502c6U, 0xb80fe6def6ea49ecU, 0x1bc94d5bd630462aU,
  0x41db473c0aaef2e4U, 0xe84a660ff4faf0feU, 0xfc5abe54d6eafe07U, 0xbf9e06bb0adbb745U,
  0xc6aa28a1f0ba9facU, 0x7f701e34314a8138U, 0x2515e20ded65787dU, 0xf59fb301c5d64bc9U,
  0x2a172ee5f3444956U, 0x2d40573ad91dfd41U, 0xb2f0073a5813cd39U, 0xf1b24ce6f71e06f7U,
  0xeb015a3e51232fefU, 0xfd9e24c8ddfdb1b3U, 0xc7d08eb45bf4aaeU, 0xb05031ed1e3391aU,
  0x7fe06ce3de6f090eU, 0xef4be5af5f37412cU, 0xa094b3c2d96a138U, 0x40dff9ce62b4216U,
  0xc8cedb41382e70c2U, 0xe464ab6caed365a5U, 0xc06c6b2943debf4eU, 0xf723f09b51b3fc69U,
  0x2e090d445ef569f1U, 0x4b78e8b7c0783029U, 0x26cc4340f3623745U, 0xe74fbc18d1b4b01dU,
  0x6591a053c35d31d4U, 0xf7400bcd0ebaa7e0U, 0x396b76efd0563123U, 0x28ace2366547adb0U,
  0x451ff391f083a3dU, 0xf9d867894e0993d3U, 0xb7470d8ae38b8d4bU, 0xf5017f6b69a1e9a5U,
  0x375b080803d7f08eU, 0x4a27bb2324eabf09U, 0x16a2d2c8c20728b2U, 0xc7299136637ffb7aU,
  0x23ebd54b2cd02cefU, 0x5d928f2fe4ecc56U, 0xa054f951bf53ec43U, 0x262b12aebecb09baU,
  0xfde05752d2213103U, 0x4e0522d0163cc7deU, 0x544ad6c7cfff9abaU, 0x3f133e23436c4eadU,
  0x497b1a78ad50124bU, 0x3c4136034a3c6af7U, 0xce42a8b1b381ea4cU, 0xd4b3e960c134be11U,
  0x5a53750316da56d7U, 0xeea5120a58ca5a9eU, 0xbbf0198feabbea0cU, 0x3e403c13495445aeU,
  0xea9d9e828a99a862U, 0xdfcca4d734b2d55aU, 0xd6384b77a02a90b4U, 0xd0fa134a57a28a52U,
  0x8e9320cb75f2cbbdU, 0xfc45096ab3cf10c6U, 0x1f245843046ed1e6U, 0xfb124030d905253eU,
  0x2cf71f143bb1242dU, 0x2541df111412f0c9U, 0xdccae2cf41efcf03U, 0x38d73f4de72446e7U,
  0xdab6c1d04be54b12U, 0x17cc4a2ca946ff0aU, 0x29b5fcb44725cb39U, 0xfc1722f9413df07fU,
  0x8436d0ae16b5834U, 0x4f0afab949f64daeU, 0x22aeb5eed42d2e11U, 0x304e2266b4b10fddU,
  0xbd2b400ca5d33a48U, 0x49e714b363420a33U, 0x532fe8eecc09ecd9U, 0xceeef5a051f19f9fU,
  0xdea8391db01e53afU, 0xa8d10216b73b3056U, 0x30108f02ac1ee930U, 0x9481f116b200d4b7U,
  0xdc336ef65f29ea27U, 0xebe2dae6e4445bdaU, 0xffc2d848d45932afU, 0xb0222f16145048deU,
  0x42de19a4c41d0e04U, 0x482e05ec4b4cc133U, 0xcf8e4c81932fed6U, 0x562cbc5ebfd9e6c8U,
  0x16f135efb0531448U, 0x34d3f9e9c615e812U, 0xd409970d81d40e2fU, 0xd931f357567f17bfU,
  0x5b3b3255ef1d0313U, 0x2637381ac5dc41f7U, 0x10f2fde8ee3afd05U, 0x312533c948392bc7U,
  0xd2e119ecf421c1d6U, 0xec9f22dc31c3101U, 0xd6074cc3c94adf47U, 0xaf431e518cd150aU,
  0x37600fe2c70ecb20U, 0x48487b690a0df815U, 0x25d6fac96b6b7c2aU, 0xbf27f7e2a8d9fe17U,
  0xc3413019ff05f2b3U, 0xdef7ea3cc224fcccU, 0x3153c3edaf736c5U, 0xdd10e849e3ed19bfU,
  0x4636b5d1f6c5be02U, 0x1dc803c42a1cf643U, 0xfded2dd7fb0a23d6U, 0x1bc4d413eadcd2f1U,
  0x424b6d7c256e2a42U, 0xbf0b48540c62377fU, 0xe9c11ee43004ecf2U, 0xc62b02eceeb4b723U,
  0x1126ddd216d1e835U, 0xf0004cc011e3b0bU, 0x3109d30cdd124448U, 0xdae20bf6c91f0fe3U,
  0xcad62cc62b31f3fdU, 0xd4f0c03fb192727U, 0xb374211efede80aU, 0x295f030a4719e64aU,
  0xc797f4604404565U, 0x53f9ecd56112756eU, 0x3d0d7f29cc5ed5e3U, 0xdfffb2453ce16fecU,
  0x2df531db94d7125fU, 0xcce3739f6fc2c0c5U, 0xb3429a384fe8e353U, 0x50a4135af05a0d8aU,
  0xbffc5fb11eb8d323U, 0x4a32b3df73d17052U, 0x2362ecd89afbce70U, 0x312bd2ac247646cbU,
  0xa3ecabbff381037cU, 0xbaf5c1aa4f160921U, 0x5c0df722b6e6542dU, 0x12df46eee2f32223U,
  0xd92e319f321d1302U, 0x360d3e72af81b2dU, 0x6202416368c9ea64U, 0x630df2d8cb5dfef8U,
  0x2fd712282ce1cf5cU, 0x54cbdead468eab5U, 0x203adec5aceab65fU, 0xd43e2145c568fa6aU,
  0xdce7e9dc81f436e5U, 0xc5f5302898250f89U, 0xf2ceae56a630bc1dU, 0xa6fe2beba4be5f4cU,
  0x2e434b580cddb943U, 0x3505d1dea0c421bbU, 0x2f5b29f0c3ac2330U, 0x23acaa643f8ccb2U,
  0x964afadc75bb806U, 0xf403b5f9e304ee28U, 0x27075317b501e1e2U, 0xadcb0899d8c81f7U,
  0x4bceb3a318d805c2U, 0x37213ab251ec32d8U, 0x3bbe093b04b358f8U, 0xec0b19532f180045U,
  0x40372833324d504fU, 0xef2c233048adf8ecU, 0xad2ec3564b2ccae3U, 0xb5514bbadd51cdc3U,
  0x8cd2cefb3c9dde7U, 0xbcb1eff7fe2cf427U, 0x78724fdb19e14a78U, 0xeb0dfcce58046de6U,
  0xc12a26554d9098f8U, 0xb0eac4374b14553bU, 0xc1d202004f169b07U, 0xc2a4e00efee8333dU,
  0x4f55fbb550274a0cU, 0xa43bf8fb2afaf9e6U, 0x11b4eb38f094b01eU, 0x67c467fc3cd3435U,
  0x57476c30efeb487bU, 0x5b37cd283c2f0cd2U, 0x19ebb6f5a8cd913eU, 0xe1ee49ada8a17ff6U,
  0x29019a5653c4ff39U, 0x6ca3d594504e5c5U, 0x4af5be1497b14fd9U, 0xb3b459fb1d17d3a6U,
  0xbe71e931a2a7ec49U, 0xc758c1652163d598U, 0xb8d6700a966db619U, 0xe8d6e11127290490U,
  0x12e0f0b3df2bc9cbU, 0x72e06cac21be2b97U, 0xe22b6b3b17fd2435U, 0x55e0b18d280ec0b7U,
  0xa805d6dbe7c65f70U, 0xdb02a0fe93a38f22U, 0x623abed1b9d9dc30U, 0x6a693c18abac6131U,
  0x563424eef6b71e07U, 0xe311098fa14424d1U, 0x96184b3c17d966d5U, 0x99781c8184009ecfU,
  0x62d1038f9fdc313fU, 0x43dd5b1cca6cc63U, 0xf88b59d78f17a0c8U, 0x155a5e2ecde63b09U,
  0xb91206c498254d24U, 0xb8a741a55add45e3U, 0x9ef181f8e7559630U, 0xd818a93a10bc5dd6U,
  0x53a5b7533cd44ee8U, 0xc0f9296efb96015bU, 0xfdc167af0542dde9U, 0x2e16424d271d5710U,
  0xefddf8faee02f605U, 0x21bf1e127c7f32cU, 0x1faf03c1a333d17U, 0x1dece70f27f4e0c0U,
  0xe4fc33dd2413de20U, 0xd92cf6e6efdd2716U, 0x35cc2bcfbf2d3710U, 0x91f1bd7e628f50eU,
  0xd8bbe0c5e1d80540U, 0xaca9aae4dc81bcabU, 0xe35b746666c991c1U, 0xfbe32bd54005402aU,
  0xe5b51e510322b135U, 0x50c8b8cb07051e34U, 0xfa20ea18aa1b03ceU, 0xcb19fb4a2141fbe3U,
  0xae3e3ed601dfef46U, 0xc5ec23b6fe2d370fU, 0xc419fa32e91b1544U, 0xb69e0ec60a20ba25U,
  0xecb02181c1f300afU, 0xe40cda41b4bac9ebU, 0xc0b5f7f38125767U, 0x48ba62a7336d9900U,
  0x5e5b18239d601663U, 0xb2e988cc5b8fefaU, 0x1cfa923717e33664U, 0x202b2810d2ceb235U,
  0x5c3618e1bb121133U, 0xc8e56fb2dd545bddU, 0xd2dabce53a28b9faU, 0xcd25d62c14f011aeU,
  0x499d12bdb20e151dU, 0xfe09a028ad97b7c4U, 0x348bfe93fed369a7U, 0x2231492895566e12U,
  0x6e90a1db369eb543U, 0x74834d713fe42a48U, 0xa887bf51d3901a03U, 0x26d8fd6f89c11b3eU,
  0x3b4085ef2718be5U, 0xdeb0d80c4e3c233eU, 0xcb97c2b92c8153c8U, 0xabd2c74e862e8b8eU,
  0x724922484f07f6f4U, 0xf628ec60a113bdb6U, 0x4cae060027cdc95fU, 0x2c4459ce26f13dfdU,
  0xe92ff3db32d8e336U, 0xcc4516f35fd05b49U, 0xc120e0c3505fd24cU, 0x5c331a584fd8af2bU,
  0xaa2bd75c691a5ae1U, 0xcea981213b774ac4U, 0xe6cf97b42ef1f3cbU, 0x5f1b197f5355af5cU,
  0x95970ed19391709U, 0x21b1242a33d15762U, 0x433be7dccc3c2327U, 0x5ff71a553ad71f08U,
  0x1d33fc3e6d2d6966U, 0xcc3f61473969e6f1U, 0xd436541455eef4b4U, 0xdcce55afe71445b0U,
  0x67024c16c53734d2U, 0x36bb00fed34af3d8U, 0x6104b597b6e61648U, 0xf00b53c3c1eb9f2dU,
  0xd73fcbb3b13d2cc1U, 0xebb5f3a0aefc871eU, 0xbb8d5f35f44a9a4fU, 0x950fe72222acd725U,
  0x44225156de51f76eU, 0xd8d5f5b4a069e6d2U, 0x2ee21dabdd472adcU, 0x2d146e2fc2c78a81U,
  0x521db5f500ee869U, 0x9365b89f4ad900f7U, 0x9f227f5c6525e7aeU, 0x34db4a2086e2bae2U,
  0x44fe68f44e5dccb8U, 0x3f19d9999db4261cU, 0xf3f44af3eafe41c1U, 0x961d32b7264c5f6U,
  0x96220416a76eff2dU, 0x2ba2daa84b4a980fU, 0xf3139fbca3eabc2bU, 0x11f5fe2e4216cab5U,
  0x196d4e41f84f555bU, 0xdaee3f3afe0fcfd3U, 0xb4c3c8c314f1180cU, 0xce04ef35f1de11c5U,
  0x2610f72df42f4610U, 0x2219dfc72cdffe1cU, 0x5cadac31a043841U, 0xc535b7fae439e23aU,
  0x15441ae9e9c9fee1U, 0xdedb06342122d410U, 0x3d6d3d8c02244fbU, 0xc6f4e5c38ca59881U,
  0x7f02cd3abdd49185U, 0x68f744841944161U, 0x1ea6f6cdf7a79124U, 0xa9178d96de677faeU,
  0xd6c0d1a9a7bae1e9U, 0xb8e1ed30df0d2dd8U, 0x8f83e1a084a6f54fU, 0x381b76b2fcebe0b1U,
  0x4e51fd33a976a856U, 0x340f6ad3573cbf93U, 0x1ccbad7bf24fba43U, 0xdadd447f86cf2a20U,
  0x2036393dcc48d0e5U, 0xfd181acecab1ae1fU, 0xca1f3ef6bbe430e9U, 0x3bd8ddd8ccd90abaU,
  0xabacdc6fced31f6U, 0xd746c8d6352b5840U, 0x54c6ea1e461621bcU, 0x66731e505e75254bU,
  0x302a2334e0f34918U, 0xd0f217f909fd20c7U, 0xde6521a6d8212ab5U, 0x3f3c40d62371ed3eU,
  0x3d1e51b7134df8f8U, 0x2be943c4f5fd07U, 0x3df5ed39401209d8U, 0xe541c5e3ffc3b9e6U,
  0xce51e3df1d48fc38U, 0xd5b702c9c7e8d93eU, 0xeeb2e5d9b5fa4619U, 0xc3e424fdb410143U,
  0xb3c4a7bc81171322U, 0xeca0bc1cb7c49e03U, 0x1acfcf43aeb34b24U, 0x48134ef563301defU,
  0x7c5250e13b63a09U, 0xedabaa340102e941U, 0x5cd825d638db1754U, 0x123531a2b2000c7U,
  0x49c359d013b1582fU, 0x50a8b21215b2d15bU, 0xcff44ef8ff35ce54U, 0x6851d83eff403bbdU,
  0x1dec3009617f6975U, 0xf7ef920a129cfe61U, 0xcdcdc1cbb912251fU, 0xcae0fb2b42253314U,
  0x90f40fe14e3b946U, 0xbd2431d2fdedf82dU, 0x2bbbc3e037e4471eU, 0x22c74141cc29cdd8U,
  0xd7fa080fefdecaccU, 0xd2eb3706e22c0025U, 0x677abd2befe53131U, 0x7e7c6c7e19443926U,
  0x33b70d0b6f277f49U, 0xfdd14723030d30U, 0x20c40dd2ef422f03U, 0x44c44cc9c92be9ffU,
  0x2bfbe1f0c8ad1520U, 0x1d22d4ddef22fcbcU, 0x513d4a26b6283647U, 0x321e24faee1fdf46U,
  0xb821c2f5d73605feU, 0xc24245e247d923eeU, 0x6c484a5c381172fcU, 0x19810c7b605d127fU,
  0x52cd34f5c60f2196U, 0xdd170eb93aac3aa6U, 0x5fca133162d820f0U, 0x559f2cfc20c43cd9U,
  0xfe27ecb367e7576cU, 0xca40b9230cf3acc1U, 0x963aa4c952cc4a60U, 0x4026cdaeac13cfa2U,
  0xd4b40d28614caaU, 0xf1d96a17283bb1d2U, 0x42eb1fc6353cfc1dU, 0x3e6644e00fa1328U,
  0x5f0f369fb5ae4d3fU, 0xc5af06f4c2f1391aU, 0x81cbf5ef1cdce839U, 0xd4eecdc12142e1f3U,
  0xb65a5bbc0a0c0221U, 0x43f3ec2c0cfcc0c3U, 0x19e631d10d1b18f4U, 0x3457020b4cf61f16U,
  0xcdb827f1e4bb01e9U, 0x23e3002fb4d3c0a2U, 0xedca01c7fbb0b9b3U, 0x3525e7121aeee3eeU,
  0xfeef37ee280dee1eU, 0xd5d9e012d923103fU, 0xd237e71621e5c6d0U, 0xfb321cd62b280d27U,
  0xde09de1d19dfd5eeU, 0x21e0ded6dceb422bU, 0x2d1e162d0ae13f34U, 0x6c33f2d241e30e03U,
  0x5b55127f4e566863U, 0x1806467f217f387aU, 0xe947ea3aeeee651bU, 0xaf6333d20321421U,
  0x18c2151e483f2dc0U, 0xd7c02425022cbbe7U, 0xf8e0f507e93de920U, 0xd1fc31401740f60eU,
  0x2444c3f1cc20eabeU, 0x4dcf41fc01d81f44U, 0xe30f37d0bfea441bU, 0x5f40b2dd71810d0U,
  0xbbb1fb9dc0b909d5U, 0x12f1100b0581a6abU, 0xa14643be0d34b8b7U, 0x3c4fc3f145435c4U,
  0xc3484d070d00d856U, 0xdf1eba3b1cc5e8d8U, 0x1f260ac92145083cU, 0x58ae39c0c0d9b3f4U,
  0x1ef4f4c840e7f64eU, 0xbc020dead5e40adbU, 0xf90a06ec4338ba9eU, 0x3257369f32466e6U,
  0xd63e4fd9f1fd57a4U, 0xdb6857e418eec02dU, 0xd7571cc70d5cebacU, 0x9f1fc137cdc54104U,
  0x40e41de2d0d36aeeU, 0x2912ed420d5ea1d6U, 0x4a1355d7b835f346U, 0xd6d5a7e257943f36U,
  0x37a109d8fc29ea2eU, 0x2d3ec3ee9bdd1408U, 0x44745e57f6337f00U, 0x20347f6e3e08e45dU,
  0x5fd64d4c3259010cU, 0x3456fb481239f2fcU, 0xd7d72cdc01d83c23U, 0xc7d44959e00809beU,
  0xc90dbf1c4bb5f944U, 0x31570f2f293b44ccU, 0xda11da1647ca2accU, 0x28d950111d43fc2fU,
  0xe83a0d29e743f104U, 0xf55823584e1ef41bU, 0xeb9b97a25b1115f2U, 0x2fd555361924a2eaU,
  0xcfb5a3fcfad5accU, 0x3ad3bbf72b1246e2U, 0x3ab8bffba96339ceU, 0xe0ff06a21d1d473eU,
  0xf43d5ec2234ff6edU, 0x424336616016df0fU, 0x48d362c31e4dfadU, 0xbcd64220ede1cc29U,
  0x81d7002cd70d9134U, 0xea7f9f3b36b1848dU, 0xf19dc521d33ea64U, 0xb79ee7ea58ced820U,
  0x4e11c14547e0f14fU, 0xd84024513738294eU, 0xdbd4fee0def5b5ddU, 0x3b03a64bc63dd628U,
  0xcb260019eb4db4f0U, 0xa4372d532dbbaf25U, 0x4b22191826065910U, 0x21b929c4b42befbaU,
  0xc0e3e82a61260a09U, 0xb3aa98e1374f5fb7U, 0x2fdc329441ecf640U, 0xc696a70d32d0620U,
  0x4db47437543ce01aU, 0x95e39afc44901ee4U, 0xb27bb365104ad520U, 0x78aa9942c59e4d5bU,
  0x596e9c322c35144eU, 0xc1f7116d1f135ca4U, 0x940bb60d1b4bdf86U, 0xc35df93e3b5081d4U,
  0xa7bbf1f2ac0ac11dU, 0xd6e4150df4f92cb5U, 0x2b271a3d171c3bedU, 0x84316fa44f7213aU,
  0xd9c403c9e41ee938U, 0xd035ffc5f1301f1cU, 0xcf2a3c15c4ba15efU, 0x4632e0f2def8db0aU,
  0xbec135f2e9dd30cbU, 0xa19ffa022bb6c51eU, 0xeb81bbacadfb00d9U, 0x3d227f48d593bb07U,
  0x56323609c936f5c2U, 0xf53ae44bcc4e10d2U, 0xc3b6f4a6dad62d1bU, 0x3a9800b824f51d23U,
  0x3fc51948e62caeb2U, 0x4ce33e2b48a806b7U, 0x32de0b16e243ddbfU, 0xe95e20cc1e44545eU,
  0x1b335e563c341325U, 0xc6d424c84de39521U, 0x8dfba9e34ef83ceaU, 0x5c227f69fd6af0edU,
  0xb2ea96ad510bb964U, 0xc8e3c9e2ae6092e6U, 0x14e6ce9de35f769U, 0x978da81e9cf6a21dU,
  0x70b011b321aadb3eU, 0x667e0f32d91d33bcU, 0x3a2aa4270cb3a32dU, 0xdd17f264cc6f11c9U,
  0xfb05c20ce6c7166bU, 0x1aee0a6933123b8eU, 0x4006e04f431559b1U, 0x8df4b1e493501e8U,
  0x1d6e4e63f0d9f7e7U, 0x27ffb929e2a3cd63U, 0x743e20edcfc0ab16U, 0xa32d5893d912f1ccU,
  0x53cef0c623cb14d5U, 0x19c7883b33a8e0d1U, 0x51eddd9926df216U, 0xa684de81ccf10647U,
  0xe7cfab9b95409028U, 0xe341522987eeb83eU, 0x510718fb3ff419c7U, 0x1ae28b9453e74de2U,
  0xb124f881c0408bb8U, 0xbf371cc689b8a8ddU, 0x66c1fb30413f09abU, 0xc53129aee4f945c4U,
  0xb2cd573d9352079eU, 0x5e4fadf6462eab3aU, 0xf29e4fc63e275119U, 0xa7ad01183066069bU,
  0x30becab60f11e2f8U, 0xdc5942cb433b4e55U, 0xbbe0ec26da31caebU, 0xbe160e1f32b93757U,
  0x444dbe6734e8d4d1U, 0xfbb0d7de001a47e8U, 0x4da0993da5043a61U, 0x412c28e12a091824U,
  0xf228d0c836a0b19fU, 0x49ba32a0103609aaU, 0x257f735ad0ce5f28U, 0xecb136181cd8e7ceU,
  0xf3c3e411b446d0bbU, 0xd213310c0ac9ddfeU, 0x1807c55df21d104aU, 0x45c8655409ca03f3U,
  0x3df646f4c20dd65aU, 0xd226079e4de2a6d7U, 0xe1de16d9d2c6272dU, 0x3e35840cb354cd4U,
  0x57e4590acbcf10c5U, 0x380346fce881ce17U, 0xd1aadd268adecf28U, 0x507165247aae1b27U,
  0xc45502c6ce46863cU, 0x734bd678ca150c7fU, 0xc4dea9bb61d2b4d3U, 0x659550d875cace9fU,
  0x4628cb41e57529acU, 0x903c918848dd8f93U, 0x4b92b160d81f8c0aU, 0xdc2ed909a7ca7903U,
  0xb2ab5f024d24be5dU, 0x65db336ab6987051U, 0x37fb140dcc6562fdU, 0x4f563be7fc46d65cU,
  0xe1b532de50c240d7U, 0xf0053ce511ededecU, 0x3ef5e1cff628727fU, 0xc517d4a8f0b8062dU,
  0xbb2ec20b4c15c720U, 0xe61cd9165cbe44ecU, 0xeafe31f338d74637U, 0xa27b50255324dc1U,
  0xea9bc99ae8b9fcf3U, 0xff191677df9cefadU, 0xfa5833a94119bfa7U, 0x68405250bbf7989aU,
  0xa85afd18e0e2f2f7U, 0x1b5863b646ac1c30U, 0x27dd070b281af1feU, 0x112754a3c54506cbU,
  0x6218c7f4b34dce60U, 0xb8f418ad9a2bba5eU, 0x3b09fa2c950c814U, 0x3b77055606da2467U,
  0xa3f060751f7f0378U, 0x73753510cc2f46e9U, 0xc519301252f0e6ecU, 0xaf199511fde50604U,
  0x174936ea42c22bceU, 0x9ba5665c2f63e4e0U, 0xd9aea15b6cf3f262U, 0x59c9bca7d7558137U,
  0xc411ffeed70e62e7U, 0x1a21af082e4a0c5bU, 0x5acb1da9545069c1U, 0xc7f8ebdf9f39f14cU,
  0x6c4cc707e0392977U, 0xc7054db824b16f71U, 0x1610ed12a5e2cc0aU, 0xf8ab50bf643e6869U,
  0xfab002f644a3103dU, 0x50ecd445088dc601U, 0x2046325d4ed5b3eeU, 0x19b8dfb9aeeb2b92U,
  0xac69e72d5f96e832U, 0x81fc46defb2d3da6U, 0x9621a54604eaf2ccU, 0x25c11c7955d290aaU,
  0x28d1f91329dac942U, 0x570246bfa959164cU, 0xe0b54e22c41758edU, 0x1723a6cb8b1633d0U,
  0x44b34ca83851bdd8U, 0x5bb45e0857bfcd2bU, 0xe3af3522445edf2eU, 0x63821cecd9cb514U,
  0xcfff0101304bcfd2U, 0x68d7ee7f0027e1b5U, 0x86b5fa840ff4cc4dU, 0xc2cb39cf81be2eb6U,
  0xd625423100dec09fU, 0x1ef85adc52303f11U, 0x211d0eee0504feddU, 0x18fe571808d7b1cdU,
  0xda54e3ece3fd181dU, 0xe5b2c01434bb1066U, 0xea03c93616a4462bU, 0xc5415b2dc516ec15U,
  0x33292da70522140bU, 0xebac4fa8b654255cU, 0xcb9c2a0c2aaf2713U, 0xc210753dc06d2b0eU,
  0x74462841d4e44a31U, 0x15cf85f842108ba8U, 0xbfa76f5001978a40U, 0xc043d06a6d4b0907U,
  0xed56479e295d14aeU, 0xdc66076bfa5831eaU, 0x54f0ac92332a5b2cU, 0xd3a6e2d34e816300U,
  0xdac86d4feed05fbeU, 0x2cce3b051fef2a7fU, 0xe4cf96f9afa5575bU, 0x2469b8cca806b5fdU,
  0xd63bcbac9817e273U, 0x27b7e935486fbcccU, 0xeadbd25523b5b266U, 0x9580d2932b6c564U,
  0x79c4d823432bd612U, 0x1b7a40483d36c70aU, 0x2eecf7ac20f83fcdU, 0x30153c4c2d2ca5beU,
  0xcc1ede0de2d89b32U, 0x52b7df1c2fd80e5cU, 0xf21e174b35054bc5U, 0xc518f8ca3f50e725U,
  0x43e160ced64c363eU, 0xece9f207f147bbdfU, 0xc8de0c0cd7bf2d47U, 0xc8c8de151a02d459U,
  0x41fff546380dbc0dU, 0xbca8f92da53e1adcU, 0x8ec02cc4ee3d2a9cU, 0xfd2b535981a220c8U,
  0x5cbbf610a7d0a6ecU, 0xbd26bbfae5ca403eU, 0x53995400d19094d0U, 0xd8565e16e64f31d3U,
  0x52e2d6406d05b2c5U, 0x34bc3f17b9ce56f2U, 0xab6d666824afb45bU, 0xb2a2e233224a3bb6U,
  0x92eb460a41a05db3U, 0xb31c6d775539cb50U, 0xd881c37ffcb43a47U, 0x6390a19d63bde09U,
  0x1eb3f1516dcac3d7U, 0xe9e4d3f4c2055445U, 0x2be4d3b520e8c5d7U, 0xba1a1f3ff63a3513U,
  0x21faa907d1082d5bU, 0x5b014f1fe1131d8U, 0xe51a0d6d9f4b015U, 0xe4430912a8f04daaU,
  0xe4dc7b2e4a77bd06U, 0x112f10757c1d1878U, 0x4dd85e515c30edc3U, 0xf12ad045ad0a4009U,
  0xc0ee1bf8002dffc0U, 0x1b0ccb1cf6121537U, 0xb6ded80842185357U, 0xf7e3fdc705da4baaU,
  0xbcf8e1c7a236ead9U, 0x1dc6ccf512453008U, 0x25ebe961d63f62edU, 0x31f834d551f95120U,
  0xe31b600b7b6d7f27U, 0xe8b9e9deff125579U, 0x9762042547e2a0c7U, 0x3cb53390cb9d68b8U,
  0x15a4b48e222338adU, 0x9164dc74e8aa2888U, 0xafebcc154dbd9168U, 0x657bca69e133329bU,
  0x6dff161503f754e5U, 0x1e76cd50291276aaU, 0x3c4046611a823ecU, 0xd77fea5ff3ace6f9U,
  0xb53833a512ded4d9U, 0xd740ffd79d369afcU, 0x453853b01209bd15U, 0xb5bc49bd44f945f7U,
  0xb659ffd9ef37ddd6U, 0x353f5344e3b13a1fU, 0x553b5cd3d4091bd6U, 0xd7590702395f355eU,
  0xa83e3522232af53aU, 0xdbea53f8dc390b25U, 0xf2d649e5cd08217fU, 0x3cd2eb3dfad02632U,
  0x12ebd736e4e3f0e0U, 0x24032209232ec6f3U, 0xef190cfdfe2c0c05U, 0x29c94a1d330ac91aU,
  0xe52fe9c0302cf8d8U, 0xced022ce36e3163aU, 0xc5fa183ef5c9cd41U, 0x29d2192cb7ddffe9U,
  0xecc3391efa150240U, 0x204a567f0afae400U, 0x3543a5136fc5df9U, 0xf3511a2ef475c324U,
  0xb52a81a2a3b1e25bU, 0x723b2b261d54e573U, 0x192842899388f019U, 0xa9bf540deecd6c18U,
  0xeee15934bd3af1c6U, 0xa2b64bfb20085ee4U, 0xbd37035237c53aadU, 0xdfe247e2ab9d4137U,
  0xa443b6d12e09c6fdU, 0x21cb94e997413d46U, 0x3239272a3d36decaU, 0x2531eb4e33f526f8U,
  0xcb252acbc3414413U, 0xe3bf18f3e8d6f02cU, 0xbee6e8c5acdb1dd9U, 0x32d7c33acfd90fb1U,
  0x5405b8c137ec1be5U, 0x19411ab3c4c5f614U, 0xc515c50d21fac94fU, 0xe3f22a365207d5fcU,
  0x11dd9dd492fecfeaU, 0xedfa0386fbe2e681U, 0x2111f134271ecad4U, 0x11134614e395ab4cU,
  0x5c05df10e9d8f43cU, 0xd2aee8e610caf14aU, 0x4554fabfc93c3605U, 0xee4cc713ea2624f7U,
  0x4d4515545d565dc4U, 0xc6fb2aadd3172849U, 0xf9c5f8c456b40e4eU, 0x99b5812085e30eb4U,
  0x25e9c1d7ad9e93bfU, 0xffffee1615ee01cfU, 0x190f1feddfd52300U, 0xcffd102bc226b6cbU,
  0x1c3e31bd163b33ecU, 0x3a13f51f400f0bddU, 0x1c1e291338282a13U, 0xd0c40be63407fcdbU,
  0x40cb1925dd461638U, 0x9d2d0d4e428e831U, 0x673d4c3e3f05c223U, 0x54c72657f2e3c4cU,
  0xfffffff60000000aU, 0x600000009U, 0xa00000009U, 0x300000007U,
  0xfffffff900000009U, 0x800000004U, 0xf00000002U, 0x1fffffffaU,
  0xafffffff8U, 0x100000002U, 0xfffffff900000012U, 0xfffffff7fffffffbU,
  0xfffffffb0000000cU, 0x1300000003U, 0xfffffffcU, 0x70000000eU,
  0x1500000002U, 0xffffffeefffffffaU, 0xb00000004U, 0xffffffeefffffff8U,
  0xfffffff600000007U, 0xfffffffdfffffffaU, 0x1200000008U, 0xfffffff7fffffff5U,
  0x9ffffffefU, 0xfffffff900000005U, 0x1600000013U, 0xfffffffb0000000fU,
  0xffffffff00000009U, 0xfffffff70000000fU, 0x1ffffffffU, 0xb00000001U,
  0xb00000009U, 0xa00000000U, 0x14fffffffaU, 0xffffffff00000003U,
  0x9fffffff2U, 0xffffffedfffffffcU, 0x900000008U, 0xfffffff6fffffffcU,
  0x600000004U, 0xfffffff6U, 0xfffffff400000007U, 0x20000001eU,
  0xfffffffe00000001U, 0xfffffffa00000001U, 0xd0000000eU, 0xfffffff900000003U,
  0xfffffffafffffff7U, 0xfffffffdfffffffdU, 0x4U, 0xb00000007U,
  0xf00000002U, 0xfffffffdfffffff2U, 0x200000000U, 0xfffffff400000005U,
  0xfffffffc00000008U, 0xfffffff900000002U, 0xfffffffd00000011U, 0x30000000cU,
  0x1300000001U, 0xfffffff800000005U, 0xa0000000cU, 0xfffffffc00000008U,
  0xb7bea9d49952141cU, 0x37ae1dc243446bd2U, 0x38fab1d7f721099fU, 0xc3382cab5fab7058U,
  0xb1f06922cf452430U, 0xf1fafb7050b7661eU, 0x1bc00b68acc73d50U, 0x823cb2d02d2afedU,
  0xc90eb4afc0617f51U, 0xf1b443d1dc2b30cbU, 0xbc643848e748ddcfU, 0xaf2d32b7d115da60U,
  0x5af11fe8fa2da8c7U, 0x3d08596b1d5b584aU, 0x27f24665bd1ce6fdU, 0xf95134e6fa35f913U,
  0xd73f52bb46380cfcU, 0xb4e209dd4e0b5bd2U, 0x4d3914a1bcc440f2U, 0x31565130244c4a57U,
  0xee7d9d5e44eadd4cU, 0x53ee28dee9b0d249U, 0xc9d6452240c14cecU, 0x502ea8fccc6441b8U,
  0x68471abf3b44c51eU, 0xad47a65af41251c5U, 0x35be11f66b17b159U, 0x2f2445810efbd5adU,
  0xad0ea13afa606764U, 0xa2150fc6ac66be68U, 0xfb03a9e24229eab0U, 0xcdeb5119cfcb9ac3U,
  0xb1d28bcd91e49b2U, 0xa1ea81011dcdd712U, 0xf1363cf04ac5d4acU, 0x42cdea3cf2592052U,
  0x8d05b57064bf200U, 0x65d5add06e4d2ca3U, 0x16ee9b883dd5b816U, 0xa0b41ccb22d6f1e9U,
  0x415bdafd5b1ff715U, 0xf512238b53bc3bc4U, 0x3da99dcd5a394238U, 0x3d7d82c1f949ae6U,
  0xce02ebf6a163e82eU, 0x154d26185bdf169eU, 0x34d39549b2ecb004U, 0x4036e42b57ffb00aU,
  0xa322cf044270e3f1U, 0x60e45918e351df61U, 0xff67462233f72a26U, 0x44d8ed0046bbe8faU,
  0x17fd043cab2b28bfU, 0xf0e770e0eebcad4fU, 0x48cdb17dd5e30d1eU, 0x5fa7be3b36d4624fU,
  0xa76b642ad753d7dcU, 0x49dad23cca02c943U, 0xf855f4efa7d2a9c7U, 0x4209fd2433ab06bbU,
  0x7f30cde40cf041a3U, 0xb5fdce47fe11d49eU, 0xa9c2b1f653a6ceecU, 0xe2e4e543f8ee010eU,
  0xdaa2c768f31ef2c5U, 0xb0abebb26a6c468dU, 0xa050bb940b3c8e08U, 0x6e2a0bc90d4c17daU,
  0x5a66473a7149b0f8U, 0xaf9cc93f768ffebU, 0x73b2d41466dbef44U, 0x750b8b75dc9228bbU,
  0x5358d75cf54ef4bU, 0x63ab6dd68973c7f8U, 0x8e5a96fe040886c0U, 0x4feae10238fa02bdU,
  0x8a651e5b2118ab55U, 0xfef5932fd2681c11U, 0xef4db99c531213ecU, 0x2db2b2ad08819f32U,
  0x59618afe5456fba9U, 0x40e73e56b1e10d3fU, 0x55b1bf2a37acaf94U, 0x528f9924a4b34e27U,
  0xe9ce21ef1f62f856U, 0xefbf55d5985bef7fU, 0xfc25d732374a27f8U, 0xd85d1b1799d14b15U,
  0x4573e35e671c3dfbU, 0x5359f83cda1cf2b4U, 0x11e5a5ee05111cb0U, 0x4a34c9c05936b963U,
  0xef5833019813e6e6U, 0xf7ddde209f49bf40U, 0xa5b8f5cc5a0fbc4eU, 0x9bb445b3c2a6b9feU,
  0xc0d90c96206a606U, 0xd6bcb4c66ecda0fU, 0x61c35f572ea3bb6eU, 0x3fd916ead01d06fdU,
  0xebe35a9e62f84c18U, 0xf1a46a954b21fb60U, 0x7081b92f1a6c0093U, 0x6f3be0a6b14e87e9U,
  0xf8c559550ecfe02U, 0x771eacc549555c9cU, 0xe8aad130230c1c69U, 0x522b3d38fbfe4cdfU,
  0x3791540aa62ee30aU, 0xace827c85aded727U, 0xc8fb173cfbaab420U, 0xb754a45bf23a7af7U,
  0xb2ae1b1cecba0be4U, 0xdbeb37afef37b17fU, 0xec1d0abffe12658U, 0x20ef2125d0d0da0aU,
  0x1739e79eeff9be3cU, 0x1ef160b23be6ac02U, 0xf6bf5538304e5d43U, 0xc054bbb59a644a04U,
  0xfe5158edef5ea207U, 0xab0a02aae9e4d4ceU, 0xbe0c27b1433a4a15U, 0x2d0df3ff63472748U,
  0x5434e1ed37e6c34aU, 0x19dfaf0db02beb37U, 0x5e13da45ddebeb14U, 0x400bd408446aae38U,
  0x215698237733f03aU, 0x70f055cb312bed87U, 0x822c03aa53dc4592U, 0xdc014272f38d1eaU,
  0xa6d914afbd108206U, 0x25116dbb4aca41d1U, 0xddd33f63a1ee53c2U, 0x78913370ae22e73dU,
  0xe7f8718606b5e5e9U, 0x11d648f52d96f00dU, 0xa81fe051e89bcb6fU, 0x8866cc0c4520f1bU,
  0x90ec2bf94b52a6c4U, 0x2441b5ce3f9e5116U, 0x57abb72fb847aff6U, 0x4324f1a5b44b7f10U,
  0xde0909978aa31dfdU, 0x312ef46e06f6e1e7U, 0xc52e191641d1dfd4U, 0xaddec72cca5768c4U,
  0x1b9241b5f8ad1208U, 0x1320a8fb471ae741U, 0x5f18988dc11b1e06U, 0xdead46c43bfd318bU,
  0x5f91ece6f64ef2fU, 0xd7b81b107c521fcU, 0x16cd0fa54740b961U, 0x4cd72a9cf415948U,
  0xe91a05dfdddbdcfeU, 0xaa68e43fe25d574cU, 0x17c13fdd16e0d44bU, 0xd7e9bb96acf04367U,
  0xd2f85a57b490d70fU, 0x63ef2feca3012833U, 0xe65f1c424a94431cU, 0x27f404d06eb3ad0fU,
  0x578fa419c44d4e19U, 0xd142d47f65f10f5bU, 0x3d3952429e81721bU, 0xef0861c86cac2f00U,
  0xcda7ddef40a94f4fU, 0xf4ca2cddccc8fae6U, 0xcb4d39cdb1c3a7e0U, 0xdb1d2e5c1761f907U,
  0xe3321e96ce280bffU, 0xfc8ffec1891ae54fU, 0x566b6aed8ff2a749U, 0xcecb2e92f0a12af5U,
  0xb4f5cdf94b9ddf93U, 0xb1f4246f3446b5d6U, 0x22fca191ae9f664dU, 0x3048644a6c637ff8U,
  0xbda1595fbbb92e8dU, 0x6c185abb4cfd1627U, 0x964a4ddbfc32ee19U, 0xd70b3450f935f8baU,
  0xc110fc54242ab7bfU, 0xe5470059420f9d3aU, 0x1d9511c8adc166deU, 0x421f77ae38b1286aU,
  0x4bd798cbbce318e5U, 0x5377f04e4c29a146U, 0xb59a62e03a6718eaU, 0xb477ef68041a8524U,
  0x1ae530aa973f23fU, 0x1b721ea838877993U, 0x5db61bc627daa7e9U, 0xe4617c25b706201U,
  0x2e47abc6ede0dfc4U, 0x5fb00d30e0a9d2aeU, 0x4058c209f1f4c8a7U, 0x285ea801c35cbcccU,
  0x2bc92241095a49aeU, 0xfdb0be01194f9717U, 0x13ce387a5133b79bU, 0x2685641b1f508aaaU,
  0x2ce54ae74bc1dac9U, 0x4b1391d2c43d5c18U, 0x98dac18a81dae75bU, 0xd085fa00571c054U,
  0xaff8f4ec343b3dbU, 0xfe70349509d462e1U, 0x9a4cd8f1bba475f9U, 0xd10368a7bb4ceda2U,
  0x62a3972f511a4021U, 0x232e9b32a2f0078dU, 0x19ea118bda66ff6cU, 0x66cbf2536f13a937U,
  0xacdcde97edd6a800U, 0xde341bc20928a2f3U, 0x533f474a70d40f69U, 0x36bf63bcf6241d31U,
  0xdc0a1509c138b227U, 0xfa9dd9459087b2a4U, 0xa28161046666dab3U, 0x23e6afd67838793aU,
  0xbc11979d0def3804U, 0xe724d2c7d76f0accU, 0x96717203f29cd399U, 0x6041f02a1bfc15dbU,
  0x5cb9baf40738a553U, 0xc4b2f707819f83acU, 0xeff03f4e824ba407U, 0x5adfe8000226a264U,
  0x96c1da2112123ac1U, 0xb45f529c23329928U, 0x8c286a39388433d1U, 0xe5ae4c66458fd404U,
  0xabff20e7eebeefe7U, 0xbd33d913a0cb472aU, 0x963e5dc16e15061dU, 0x849ac4f8bfa52bf5U,
  0xae3223545d3662d9U, 0x7a432dedda54b855U, 0x7e13abdd80b315fU, 0x37a137e0f560f49fU,
  0x22a3a3f23445f7efU, 0x48376439ca971a70U, 0x2acdfcf2571f6e0cU, 0x11984e4fb6af8de7U,
  0x6b47f6dbccd1989fU, 0x774c818fc200f438U, 0x4bb59ae314a62a01U, 0x38b6cceefd43559dU,
  0xedb9ca09d1a8f99fU, 0xdab15d4d6b182713U, 0xabfa41516960f8c9U, 0x10eb541320e145e9U,
  0xc8e0f3d23bac07c0U, 0x4a1416f82ebb208dU, 0xd2ea414b6cc06cedU, 0x2694c01faadc21e7U,
  0xd13cfca3c8eae09fU, 0x4ce7d3f052e46e2cU, 0xc9443040e85f4209U, 0xceabc010471ea3d0U,
  0x2f1961b1c846bd4aU, 0xfdacdaef490acd5aU, 0xb31ac81cdc0bac9U, 0xaddd5b17c0efe09eU,
  0xc1a1b3afa07c248U, 0xc7304031fd2f4fbbU, 0x30000422c1554362U, 0x591648980a092438U,
  0x22e5ef31651aa819U, 0x4e5cac5d5cb9e7f9U, 0xbb1893ef20f85b28U, 0x8557492494dd10cU,
  0xba0c18d252eba2b3U, 0x1df841b9b8302556U, 0x7fa50a4cfae1de6U, 0xc51108f455a324ffU,
  0x53d0404139dbab17U, 0x3dd410b839257f06U, 0xd7b81fa7f2e1df24U, 0x42059bdb28b5f8b9U,
  0x893494118fb9458U, 0x10eb9cc9329d6d50U, 0xa09c51dbc919d653U, 0x2b330c1c0f122f5eU,
  0xc6ee0ce374bb33f6U, 0x381484c8b7b3d088U, 0xaa1b4c54963c71deU, 0xe627faa3da161493U,
  0xdd07ff89a6e31722U, 0x27d5b89677b3df26U, 0x66481efe25dd685dU, 0x29b84c42406009a1U,
  0x2621e62e78c10de1U, 0xb118a5d4d66611c3U, 0xd506b5a5f10817dbU, 0xd60a7f296744604dU,
  0xc3276869ded71fffU, 0x9fa4b9d56bb0fdd7U, 0xeb963dd045d5598U, 0x54367444b3c91c0cU,
  0xfb31f94d19ba1fefU, 0xe8b9685e3ad8ddd1U, 0xcfd11c6031c0e3fcU, 0x668b2690b08fa4a7U,
  0x7108f3624cd65b0aU, 0xe933a2a1308e942cU, 0x59cf0a36b6e2269eU, 0x7ff707994b133d53U,
  0x2d748dfedbaaef47U, 0xbf3d1a748662bfabU, 0x8d5e43c6ee68bd17U, 0x9766c202ad9e3ebaU,
  0xb0664875e4961968U, 0xd35fb3fec0691e6bU, 0x8ab3f80fd7609e14U, 0xd64a0837c41dca14U,
  0x248b65a90d2291cfU, 0x4208c7a98825f596U, 0xcb5b40fe2fe95890U, 0xc60759914b869bb1U,
  0x2cf4227f1dc134e3U, 0x12ccc0af5f5a53fbU, 0xbe4238532b9aa49U, 0xdb5e2db08cb1694dU,
  0x36d5da57b3aabaeaU, 0xe115a7b21120e12cU, 0xad1ea433664519f8U, 0x1e4708f2f39ad74bU,
  0x6b69b1ac212fbaU, 0x381c0e0356a794b2U, 0xd7195e54555ed2f8U, 0x5a397146ccc0b841U,
  0xbeb6abeab4445b9dU, 0x68f2ebc3fb58023fU, 0x27dcf46a2914b91fU, 0x9d1a439ad4dbacb7U,
  0xaae1441adef0eec0U, 0xe612e8a8571b3045U, 0xb00d7f4990afe62dU, 0xdb97dd31ffcce4d0U,
  0x42c82c26687542faU, 0xaa47f5b21efffbc9U, 0xcfac40ac31ff2609U, 0x5d0941cadc4e63edU,
  0xc70bc0b2224319bfU, 0x315224305a0ebbe1U, 0x353340f15927bdf9U, 0x5330cbcf00374e60U,
  0xe9a901105a43c74aU, 0xfe3cc4b1e9ede5a0U, 0xaf14da69cc18acb8U, 0x61dfdebed30ce2a8U,
  0x32ada68cc4e84fb4U, 0xcecbe7c4a8217321U, 0x5c9df7d621d225e2U, 0x38f11b479b4d270eU,
  0x3238cc17afee903bU, 0x5436b1d2b63a210cU, 0x36c0ba2cdd645135U, 0x73b4a9b6249ff20bU,
  0x97d352c1cdedb24cU, 0xd0d004422e437fb4U, 0x29c7e4bd4053691fU, 0xcad801450815e1c3U,
  0x4a22d8061ca7c497U, 0x6590110add381f51U, 0xbe6ace4cd9d5ff61U, 0xa1a5cc6bf9f81138U,
  0x92ac3e8ad317ff0bU, 0xa71a04c11381255dU, 0x156e28bf7147aa43U, 0x53c0f155ed180637U,
  0x3b5aa440a03f2390U, 0xa2c394e03ef9810U, 0x72ba306240dcbfb1U, 0xd4921d44f87424daU,
  0xc025f2fdc965bc2dU, 0xa9bd8c4710d5c6d8U, 0xb535c87ae7f93ccfU, 0x6d8711bb54bb742eU,
  0xf0c52ebb60fb0d10U, 0xec3531063505ebb7U, 0x1ed3a064da190a31U, 0xbdc52a5b5bb0ab00U,
  0xb47fa3dc52994014U, 0x692a430a11eaf5c6U, 0x66bf4ddff8bf5e16U, 0xe63464035c49b10aU,
  0xbfa7279cf48837ebU, 0x59d2520d96d84835U, 0x6710377498746de5U, 0xf4e1621d8638b328U,
  0x6f08ef421cbdc92dU, 0x9e1c1e65215b09b4U, 0x4a49e0114100d8d4U, 0xefe4251aa5b3b657U,
  0xd908614dddf14f1bU, 0xc419f68ba5e86616U, 0xd035afbb65134a3fU, 0xc46445e9585d0728U,
  0x2d1da1e6fab68acbU, 0x9ee092445a811086U, 0xfa375714ba4b370aU, 0x6699c9d6bee7c1a5U,
  0x7c0efcb80a16a4aeU, 0x5a5f39a92a511856U, 0xe825a8e339b31bb2U, 0x43bf2cdee8e9d3e0U,
  0xa2619f71ae5dfcddU, 0xc45e0690c6611bc7U, 0xb3ed068e227401ebU, 0xfca5fca238fa6492U,
  0xf451f24db00c7096U, 0x54ea02a21fb9da55U, 0xf7b530528cfb9613U, 0xfd50af03f1f3812cU,
  0x61e251c06402f8d8U, 0x495e1f29b229e34dU, 0x3ecbe3aae69aa552U, 0xb8d9bb54653ef26eU,
  0x6403854cb41c3510U, 0x6f91cffeda63a860U, 0x54779400268dc8e0U, 0x650cc7fba55f075aU,
  0xa6de92b0c758b7ffU, 0x581d513453a3133dU, 0x6d3913b54bbbc18U, 0xa62b1715faf9303dU,
  0x1bc31baa5f62c61fU, 0x19b603063ec4a95fU, 0x1c4165d4054cc80eU, 0x12369a65669c499dU,
  0x2bcd88aaaf136509U, 0x97e10ca2ed36ef0aU, 0x24a831e237680552U, 0xc0b0b22eedbda7ddU,
  0x9b2d08c22aa717b2U, 0x98596b583f2c4e61U, 0xf354e7f2ecfba04aU, 0x269bf548a1d27f2dU,
  0x66b6ddee473e49bdU, 0x9fdf22543af06d0bU, 0x668439c0dc95550dU, 0xedaab6f712d0aea7U,
  0x34fb4236cbf339f4U, 0xf35da96d5c444162U, 0x1b868b671d704a9dU, 0x482ea83209ac6a5eU,
  0xfb6eccdc2f47629bU, 0xc1f0f607145931a0U, 0x1906623153948f1dU, 0xc29e5d83d2e19fbU,
  0x4f39eff422fd2d17U, 0x7b6105eeb6fea123U, 0x656d8a9add9c698dU, 0x872af85d05c70731U,
  0x96ce41072cb648ecU, 0x5481264c66f702ffU, 0x1371405784045b02U, 0x32b568ed9c966ceaU,
  0xb6b7fd4b5323e606U, 0xdabc1fcaa454986dU, 0xf068acffe2b00b62U, 0xc53fbeb1e2560a1fU,
  0xc9f79ff7b006c6edU, 0xc7c349813d895831U, 0x1105f8135abb4f85U, 0x35d71af6685b3dcaU,
  0xc50f9904cbad30e9U, 0xd5e631aff0133decU, 0x1352c392621108f9U, 0xec25e92c231fc835U,
  0xae26ceffc3253c1fU, 0xccbf0ae64f300d9cU, 0x4b1f66dfe5fcbda9U, 0x54a426dab4fdacc2U,
  0x55d0b5b10400413bU, 0x53142dc39fbade40U, 0x2e57fae63d6fd665U, 0xa33fb8e8d83711feU,
  0x2b17ccd9e3653398U, 0xcfde2840fe62c6c2U, 0xb3b2bacc5004d7e6U, 0xa3f3ccd239d0251fU,
  0x147ef7689ecad04fU, 0xdc416c4f51e418U, 0xaae6e7fbd6fb4065U, 0xe21eda7fed5e5cdaU,
  0x49f13ffa566dccc4U, 0xfaa99d6d0a3ad5dbU, 0xb90fdfb8ab245fddU, 0xfd21dddfb6aab841U,
  0xafda0fbdf53c6dc2U, 0x974935e65dcc5772U, 0x49d497a36d4db52bU, 0xd129891f0b1dbf7fU,
  0xb53d992309c44faaU, 0x20fb96adace7dae9U, 0x66a6067362b6911aU, 0x83696ada6d2c4aaU,
  0x4d3b90b7c5fb3a84U, 0xd5f7bc6827b92f8fU, 0x722dd1093a59f4fdU, 0xc2fa0854e21bf8abU,
  0x94be3018c965a651U, 0x3e0aa754e725e939U, 0xe88cdd91d112f55fU, 0x927e876d45ffa4adU,
  0x23aabe42d5f52550U, 0xcc1269b36dd1c22aU, 0xe54d6f6761471bc9U, 0x7623ddb8d51b373aU,
  0x5eea65b1ab42ce2eU, 0xee99f35d38e50b04U, 0xaf2c336509c1e353U, 0x2ceeeb528cd901e4U,
  0x5dd0260927db2e57U, 0x1b2a215d1640eefaU, 0x3d13a3d69e961a30U, 0x42464dcdc7680600U,
  0x46c85c445ec6c7e6U, 0xc5445f7fe64ca654U, 0x1a7580d38a79cd6U, 0x3518ef4dccf24bedU,
  0x3097efa518f9dc59U, 0xa84f255c521099a9U, 0x15289fe3a707d203U, 0xcad3bc8e322562b3U,
  0x2870d6503471707dU, 0x41c9a5cb0be209fU, 0x4f0092517e270a42U, 0x26cb2d2f50f560e0U,
  0x4666c4bda0aadecaU, 0x1405f25d523e08ecU, 0xe8b4292e413f1b43U, 0xa3dad481c0e7f7e9U,
  0x30b4676cf8635d90U, 0x140ca76fd40dc13dU, 0xd15234e9455df16dU, 0x9b200051cdd8d936U,
  0x9aa521b2a2effed4U, 0xc491c9693dd01732U, 0x92a452ccc7a41cffU, 0x62dcb695011012ebU,
  0xc84a348b5df55ed3U, 0x7546cb7fb72fb1c0U, 0x42e94a0735964c5eU, 0xfc44fe37f2308c3eU,
  0x6460f29edc07ee00U, 0xa60203de0147fb1fU, 0xfa2ef2eb02c1e897U, 0xbdd3762ab4ce33cdU,
  0x494214516ec4a31cU, 0x510a684ad2efbe2cU, 0xee34dd44c51d5825U, 0x2bf6db0264a9fb76U,
  0xbb04da9233e7d4f4U, 0x6804d1950bdff3c9U, 0x81c4266156dd6cb6U, 0x62e54d18f331fb33U,
  0xe5265249d24f62a4U, 0xd4b5e3cb75b8c434U, 0xe81fbd3147154c1dU, 0x4d975fb73ec6d8c3U,
  0x56e6385067e2b5d1U, 0x35f246cd9f5a60beU, 0x33c502d9c8fe6d50U, 0x191553e25c59672fU,
  0xe06b43f1d4bdb1c5U, 0x93b12a504ca45b71U, 0xb4ebbf3d4513a642U, 0xb62eb3251f31223aU,
  0xfb9b6a23195cbbeaU, 0x712c340d9f4b6b4aU, 0x9cee73343a5f4b89U, 0xa00cada1cf9dd877U,
  0x820f79ae661d9dbeU, 0x59ff4ea8213c993dU, 0x787b69336290e9b3U, 0x9302ce81f9022ebU,
  0x1bfd3c08c26022eaU, 0x264c4aa6a1ffa91dU, 0x1a64d3c9c3551ccU, 0x8f83973fd1bac7b1U,
  0xad413b4afe4040a2U, 0x6aa4ea4356567629U, 0x17b91d1581b84fadU, 0x67b53549d1bb55f0U,
  0xa4a873b70823f316U, 0x35f60ac0cbe733c7U, 0x5ce08f7b0817682cU, 0xb312977ac95be7d4U,
  0xe5d37518743a020fU, 0x1dd281de066776e8U, 0xb2fb26f6d53f4806U, 0xf6fe5e03554299daU,
  0x58efcc3a9abcb7ebU, 0x5048ddbcd7ff8803U, 0xcb055cda32624d36U, 0x232913fee375b27U,
  0x6fc778b36c063b0aU, 0xdfdb4d966fdbbb67U, 0x65297842bb6c1c39U, 0x495a7d14e9e1ae05U,
  0x2d66e4bb63ad6813U, 0x99fde354bbb323bbU, 0xddece869b31c91a6U, 0xc3ebab009d50e60dU,
  0xaf517f4dd84c0e20U, 0x9d6a033f4f0d3e78U, 0xb505dd186db59a46U, 0x8e83345e4093ce9U,
  0xcbd6b24bd9e55f65U, 0x70d8ffacd59cbc1bU, 0xda4ddeddb32e0dacU, 0x51aa11fc0840d5e2U,
  0x9532670a40b8db26U, 0x4e9c3e21ae827deU, 0x2a29e15adcadd6caU, 0xa3be143dc11004acU,
  0x42f06a4e39f64b4bU, 0x7033813a573a2320U, 0xb0407462be16b4dU, 0xc7589fc8f925a42fU,
  0x32c5f6bb19960c38U, 0xf6e336aea759b055U, 0x5d3ff2fcad5a1751U, 0x81cd6bfcbb4ff1bU,
  0xefc71721dbebcbacU, 0xdb21f6ebb0b8e6bcU, 0x4092fadf0fbecabbU, 0xe005bc947060f6ecU,
  0xe7a24aefac70e51bU, 0xc3cebb1c1e1d0a47U, 0x49a13102f443ffccU, 0xb957ad0cc16152e9U,
  0x216065014456cc17U, 0xdc637fc719199ecaU, 0x2815b30bc3634fU, 0x42ab2d11442d51eU,
  0x9f2592bbd3c3cccU, 0xb216eb58c13decddU, 0x38f2452341abc8c4U, 0x70dc7c9bddedf4fU,
  0xf7cd506a9b9ffa4aU, 0xb50a31de6ad532e1U, 0x44c91d0f0da66353U, 0x99622ac110d6ae11U,
  0xaf2424f64bec1839U, 0xadb83add04ec5eb2U, 0xaeae5cbbfb45c3d9U, 0x59cac75dc8de161eU,
  0xcedf52fbb6353fcdU, 0xe9c4c361240ff630U, 0x4e27bdb1e03fc43fU, 0xc6c0aef166b374c5U,
  0xfbf703f213d5d3f9U, 0x640e423c347f6ff1U, 0x1618246850966eecU, 0x51505701433b635bU,
  0x9ecfd0cdf7ff7fa3U, 0x516b5bd9b149ce09U, 0xc1f2eda70dc85ab1U, 0xb2cf600ba6001b8U,
  0x3454d1730e1a3cecU, 0xd33f33d6ded123b0U, 0x3454c29fcdfe6cfcU, 0x2d4e2fe29fb9d6aU,
  0x1b1c09165550ab4bU, 0x63c50a9c67a3bffcU, 0x36b64596a1452eeeU, 0x8bb645b0ed11413U,
  0xb0a665151ac53cc2U, 0x384d0dd2075aa496U, 0xce38325b6fe37f13U, 0xc707ef2e3ee6a563U,
  0xffc32b0901498f4dU, 0x4a3fe0de652aa62dU, 0xa128621ec23cdd3dU, 0x60ccc9ccfa01deabU,
  0xa055052b42cbb3d8U, 0xda5e7554b21321dU, 0xd1621f9393c3bd9U, 0xe0c9de05bda45e47U,
  0x367c643b0be6ec1dU, 0xa701af1b3b2f98a3U, 0xc94b3a487212feacU, 0x5af3c3d8bef0d3c2U,
  0xeb460919252bc34U, 0x9f00ad524d5117b7U, 0xb46b350b41b9edaU, 0x46a847ef316c2ac4U,
  0xba941fecd7fdb87fU, 0x3396d06bdf5a0dedU, 0x35bee5dd25306ad7U, 0x161b27f95df7e9b7U,
  0x14cb6cdc240b9311U, 0xf9019ffaf18c5e29U, 0x60ae5d00a409bd5bU, 0xdf63b3cebae9faabU,
  0x4c0ccad4f8b91ebdU, 0x5403dca43b3d2fcaU, 0xc551395ebf3d1709U, 0xc441adccae611a08U,
  0x28dcc1231351f9b5U, 0x5b510db4e041367fU, 0xaed7d56d25f06039U, 0xb613371711ef3fa8U,
  0x41e4ebf53ff5200fU, 0xa2c9e6e04b35bd41U, 0xe00b6ddf8cec944U, 0xdfae4eaf561560daU,
  0xed54b4132424e1cU, 0xd9d65ccab1ff48feU, 0x2b1e4cae021a3aaeU, 0x423bd914282de639U,
  0x4cd75f794624011eU, 0x46ac2b3d44a8e899U, 0x6a08e10b181a1b5cU, 0x90ec29e5ad8fd691U,
  0xaeb20ff1133c7dd0U, 0x67832075ac1fee7fU, 0x632d4101b0a82823U, 0x1c5a873734979195U,
  0x71f57d31a26394b7U, 0x19713bb8207b7ba1U, 0x500e93240f3f2b0U, 0x1e61c9b33e3d7da9U,
  0xbd624b93aac0ff9aU, 0xcaf1775e5bc34e2bU, 0x11caa77159a05730U, 0x2cc33299e7ac6bc9U,
  0xe1cf00f225011646U, 0x1b9fdc67bbfbccb5U, 0x30abaa3ba30a999bU, 0xeeb4262be614d099U,
  0x5aa0a0d108df448aU, 0x8ed5e0eee702faebU, 0x6bebd803aa00a019U, 0x47a7509f5befc501U,
  0x5e0dd6e98fea75a3U, 0xb3b20f21616f11ecU, 0x4f2f930f61f9e928U, 0x10f2f74a01ad5560U,
  0x6452d2cf053e099aU, 0x2c271424faf17f6aU, 0x2213525a5a0a61d6U, 0x92afdb063cb75e2U,
  0x309fc24e45556acU, 0x425115a7b3e3d3a9U, 0xf3fbced98cde38bbU, 0x4c2ce3cb510b4c28U,
  0x984bb823f0d849b0U, 0xfddfaeb5f9a4c99cU, 0x5d97af53e109e0e7U, 0xeb01d0389a4bc1adU,
  0xb9d413c881fb3df4U, 0x6802e722e06631b8U, 0x30e4fdfb20a0e649U, 0x171c3c31e8aaee2bU,
  0xeb1bb3e8c20a0334U, 0xcfb304a70cdfcf4bU, 0xa51b94578ff46ce6U, 0x14c33d2d5ed7c4b4U,
  0x1cc50ffeee9e8356U, 0xa9ac13fc12c1e6a1U, 0xc0e3c371f151021U, 0xd6bfc6e3c504c09eU,
  0x468d3630b0408e3U, 0xf924ef1b3208bc4eU, 0x3af0599b0caf2918U, 0x3aa2b65233db2b47U,
  0xc06fc7e43eca585dU, 0x5550c4f2cf1a2401U, 0x35ce6ada773f2f73U, 0xf217309e48fc96a8U,
  0x61d94feeed54685cU, 0x68da60c4bb6ad6f7U, 0xa88161aef2e07b24U, 0x9d1126ce7532e333U,
  0x3f37a571d70938abU, 0x28178923312a221fU, 0x3edf5620f1efeec0U, 0x1c43c3319c162ef1U,
  0xa648e33eafa4eb28U, 0x3c515c5a569197e8U, 0xadd7c886433ba711U, 0x6abc2d569f2706c8U,
  0x393f7f31640f2261U, 0xbeb1ad2e6d0af57bU, 0x2c07a07a275f52d7U, 0x14d3c4cbcef69938U,
  0x28b40b4fda0ac2ddU, 0x5b59a75cd970d15fU, 0xe3d0062cb2008f8U, 0x9f61a6aadf6198c9U,
  0x3dd07fa6f393c014U, 0x3acbe32ba2deb098U, 0xf452ca2e2a60cd72U, 0x2a69591c59fdcfacU,
  0x62b1693948143054U, 0x1a0aa09f3335945aU, 0xf2b32671bde9473dU, 0x6adea53e96c5b9a0U,
  0xaa2bb59f73063be7U, 0xcd976b7468df91d2U, 0x39dd17058fc6e267U, 0xf8b04f92de5fde60U,
  0xbea95e27d6bdd2c9U, 0x98ff65381c61bc23U, 0x2cfd41c0a5c30019U, 0xcffeeed33ed3b6c9U,
  0xde2ca6134c73a61U, 0xae9d38a34e483ffaU, 0xf34132b9fc2fcf46U, 0xafff15bcb208e3ccU,
  0xe00d3d8f596108daU, 0xe7aef44c4c31abc0U, 0x764aa8fe389c263eU, 0x210041e0cafa14a7U,
  0xa3f13e93c02430c5U, 0x15e3c8a9587f3a0aU, 0x173ebfcc043139b8U, 0x362c3f07f5b8cfb0U,
  0xed06f769a5fb056dU, 0x1ca20a24c511a817U, 0x9e36f3bfa0eaed0cU, 0xd471ffd6db215a94U,
  0x2c20e258e2214711U, 0x2d0c050b0f605bfeU, 0xf275ad622d0a8c5aU, 0x67cc6fe77ccca624U,
  0xb46000ed4cfd434fU, 0x92233b59c6de6177U, 0x9e7f262867996459U, 0x58cd8a4933d53f5eU,
  0xa8a187e7b94f7404U, 0x12470ab525b71271U, 0x643ca0109d26b22U, 0x4fa230c2b6f439cU,
  0x53ca1c6ad7981c2eU, 0x997affbb568cab71U, 0x8415fcc395e1b33cU, 0xe0bac13fbf19e3eaU,
  0xa9b7004e4e41e5a1U, 0x23abb9485b919e24U, 0x20971205f45e5bb3U, 0xf4b9db59f36334e3U,
  0x9e07b81cdee77197U, 0x31a2dd3ad215e1b2U, 0xae18ecf69a13632eU, 0x5ce00edbaf274d7fU,
  0xa84827e2f611e417U, 0x3b3a4800b3b97f9dU, 0x7818605962bcdc10U, 0xed58087bc5535301U,
  0xa268d23e9fcf089fU, 0x124471dbe5f850e9U, 0xfde4385243ee45c7U, 0xaa6863d5aceae152U,
  0xc67390e1cd4c4cacU, 0x6b8bade3a66fb3c0U, 0x24bb884bb5e3a811U, 0x57ae2edeba333aacU,
  0x1ed078c43a20fee2U, 0xee5e1b3ae25804d7U, 0xd923e5d75eefdd65U, 0xe035cea14f990cc0U,
  0x1a414dbb78614a66U, 0xfd40cfa55bcbd106U, 0xc1617bdc8c3b23eU, 0x68ae3cf83076cad9U,
  0xf04efea54c4d05c5U, 0x490e03ccf7f4725U, 0x8cafe5a0b32af009U, 0xe28bfaa508af255U,
  0xf33d324962cd30eaU, 0x6811edfe6d6aacb2U, 0x26ba573965c757aaU, 0x6c7f42cce7b6fe22U,
  0xbad108b69aeb71c1U, 0x5339a70f19222015U, 0x655ec7a204c1f0c8U, 0xeac6642ed06d96d5U,
  0x13a21994223aed1U, 0xa763103e3cef4a4aU, 0x6329fa6e05509f64U, 0x8b34a627c4f9b1d9U,
  0x5a789533d0f71a4fU, 0xad9250ec49f90c49U, 0x2dc123415ebf631fU, 0x22bc4c98413357e1U,
  0x9b4df65f03fa3be8U, 0xcd9bcae89d547548U, 0xf0733932254e6a03U, 0x7247e57341fdaffeU,
  0xf10fa403ab1706cfU, 0xae23ca21e8db3U, 0xeb1927224c6e99f5U, 0x2d2b8b556c01b94fU,
  0xb0e7662c25a3ef60U, 0x2247e042aa18ce17U, 0xfef844479e0154daU, 0x24aa9c387bb0a0cbU,
  0x8a281a72c0f6f06U, 0x69adf93f980baeefU, 0x75e4b7106885de55U, 0x698ccc7eb7d4a179U,
  0x431460fb1f2d262aU, 0xe7e66cbaa425b7d1U, 0x5edb39b0176e68e5U, 0xace093dd916cc4cbU,
  0x23d792392bb1c9eeU, 0xc9980f61d2f33fb7U, 0x51fc81ad4feb7ee8U, 0x9d17c81648d6a93eU,
  0x48ff3324dd69c65bU, 0xfeb5f7172ba140cU, 0xcc9bb5bbb2f30fa1U, 0x2dbcced690989bbbU,
  0xb02cec55592706a9U, 0x44e36fa86cb0041eU, 0x2b319f1de82f2514U, 0xec123a7a2a69f21eU,
  0xa43196ad510747c1U, 0xa8da39aaf045e3bdU, 0x5f4815cce3dccf41U, 0xf899d92fd35262d3U,
  0x2c64fedd951ade7fU, 0x271c74286ac54343U, 0xc88c69ad089ce4fcU, 0xc6b22b06f816404fU,
  0xd238c51045fdd7b2U, 0x61f9fd2411d399ebU, 0xbb5420b5a94f1093U, 0x49250d25269e2eb8U,
  0xa7ad515bd6e3f7c0U, 0x5be56ae3af176bd6U, 0xf3ec18f5de0843adU, 0xa16261b554dd9da5U,
  0xe2f597bc022aec2fU, 0xe2f59f2d0eb849c3U, 0x3b9bcac1379cca49U, 0xd70781a85613e452U,
  0x68f4c64f0bc33316U, 0xa4c0e1f47648e51dU, 0x60ed2950fcf6b7c9U, 0xf1f7a2249535515dU,
  0xebb2e126aad72ebfU, 0x4f23fe9bc4e45118U, 0xf28c96a126280f05U, 0xcf5e0b6412e4c05bU,
  0x4bf30c3c00c158e8U, 0xd013133dec2ad943U, 0xfe44b4c6a1d3415U, 0x45f9c33ef1d92addU,
  0x27b4209733be546bU, 0x2451a7ad5693ac1bU, 0x94bb8aebfdf58199U, 0x205dda584569395U,
  0x6fc90515dd1e45eaU, 0xb0dfa9ebfddcd930U, 0x7bd9be099191af2fU, 0x699e8ae656f63ee3U,
  0xeb1c1e13fb5215ccU, 0xf7681b845e655eU, 0x3f55c1b74fd4566cU, 0x6a71e4d3199bcdffU,
  0x2353a26f27c4c691U, 0x588551ff8bca5a29U, 0xd0b3bf1ffc17b895U, 0x440a67525db7e64eU,
  0x7f58e4ac95b63164U, 0x62bc225897a2712fU, 0x214d6e9eb8216196U, 0xd9de1f326dcdc43fU,
  0x462dcad9bbcf8994U, 0xd0c80fcaf7549d15U, 0xfcb0dd8c609b0e08U, 0xa2090ab84bc6e8dbU,
  0x9c3ccb9dd6e40b01U, 0x26ebae180227a69fU, 0xbda343c7cd5e65faU, 0x4df7c3d799dc7962U,
  0x633581a328f6f3eU, 0x4af274bddf2a840bU, 0x64da57e7c2106da0U, 0x6fc2c5ea5a1332ceU,
  0x28019f8a5efb2fcfU, 0xb08be5678d3d5315U, 0xcb09936cd4af0d0bU, 0x812afe9de6fec094U,
  0xd50e2c404bcca852U, 0x5204a0dd7b1f84fU, 0xa627ad6496f387afU, 0x9f92cba992b4e6baU,
  0x41b5e22024110ea0U, 0x2e815f3cfd26f95U, 0x85d4694917e6bf01U, 0xe187c711af2a2f53U,
  0x47524c90a8340310U, 0xc9e5cf719b4cee28U, 0xeb50861dfee31655U, 0xc05410ef6ab5bbcU,
  0x7cf44200c0941cb4U, 0x20071ab659572510U, 0xb6974226d34bb698U, 0x1c633329736de301U,
  0x9f47cb59ed38eadbU, 0xc7d9f63bbe0b2b2dU, 0x60b78fcff61acafbU, 0xe3cda30339e124c5U,
  0x29c3bbd0c424cad6U, 0xc2663ebe90e542f5U, 0x2024873825d9595bU, 0x20b8d34174cfec39U,
  0x35ab0aea2bfc0ef3U, 0xbbb8bacbb31c4de0U, 0xc7a8705a3126bd25U, 0x90ec7fab1610e3b9U,
  0x400000007U, 0x14fffffff7U, 0xfffffff8fffffff8U, 0x5fffffffbU,
  0xdU, 0x7fffffffeU, 0xfffffff70000000dU, 0x1fffffffcU,
  0xbfffffff3U, 0xa00000003U, 0xfffffffffffffff5U, 0xfffffffd00000019U,
  0x1U, 0xffffffffaU, 0x500000004U, 0xfffffffe00000000U,
  0x200000005U, 0x800000017U, 0xfffffffcfffffffcU, 0xbfffffffaU,
  0x40000000dU, 0x80000000aU, 0xfffffffefffffff9U, 0xfffffff700000004U,
  0xafffffffaU, 0xfffffffd00000006U, 0x1600000004U, 0x2fffffffaU,
  0x8U, 0xfffffff4fffffff6U, 0xfffffff3fffffff3U, 0xffffffff00000009U,
  0x8dd3efdb02a715f5U, 0x16e826c206d8b1a6U, 0x777f0d9255603730U, 0x379d4bc09f9871e7U,
  0x6bcaa1e6b7df6feU, 0xfde02bc0d73c6fa2U, 0x3171e8633670ab31U, 0xefc9c96b1104479fU,
  0xbdf23b6930d8f8ddU, 0x5b7227ff2cdccdfdU, 0xaa090d6578348628U, 0x9a655549947c4e8aU,
  0x86eb8673028e6636U, 0xe89e6ede2f2a8feeU, 0x5ee40493d72f91b8U, 0xce41da42260a814dU,
  0xa8976cc8956c1d8fU, 0x31f0e2c042b72e91U, 0xd3b5fd60d2b3143dU, 0x9f1f1811b944b541U,
  0xcbe841f92d19fc68U, 0xa57f0c9ae1f22b47U, 0x652d241e735caa6aU, 0x488e58f3dffcbbfdU,
  0x556e1a74291db992U, 0x40ffd8d18cd0481bU, 0x4606bc075dc3ad6cU, 0xe2e2cc4b0e66da8eU,
  0x814db9f83c0c3712U, 0x886c4fd7c6462541U, 0x7c073b2aac35425U, 0xcc2a89bead72eb25U,
  0xa4c7612f3157b096U, 0xd1ede1997fe6f2d4U, 0xefc1c368d70b1e3cU, 0x49e4d74ce2598fdcU,
  0x895f11849ba742cfU, 0xa1cbbfdc36c33804U, 0xc3ed6911ade86f26U, 0xbbcef9c3944ea2abU,
  0x1d85ca0b7f26ac74U, 0xaf31be79ac453421U, 0x25c1e3232545d4c6U, 0xc9796244330d6e6U,
  0xb347bebc3f5f0649U, 0x20ed5c0ce1402f5dU, 0xefe370d33ad341a0U, 0x424730d9cb20f503U,
  0x521a725cf44006f4U, 0xea028820a80d08c9U, 0xb3c345e2051981feU, 0xa61d3bb4e7f045f0U,
  0xb7415daa8e35e1e6U, 0x12050cae341e9d53U, 0x6b5d278b5cd4a90fU, 0x3418b459fb0604e7U,
  0x9240ba27fa2bca50U, 0xb66169f381e33760U, 0xe68a450d8fa59952U, 0x408e71ad31ad2f1bU,
  0xa911027e524fc27bU, 0xf3f55129f6cf9962U, 0x4538dc537a4ef3baU, 0x37f5b5981909c2e6U,
  0xb4f6e88eaf446d4eU, 0x491972e44d537368U, 0x569f14b29c74677bU, 0x9d6132b6bbbf39b5U,
  0xb897b095c90ed6f6U, 0x8843864acf40ed5U, 0xb0ae819dde8c0c03U, 0xcfb51ad6d10fef32U,
  0xd91ee9d5e797743bU, 0xd258de223a4fe60dU, 0x8109a3b1fca85da6U, 0x70c4145991341475U,
  0x3924fef4080d4098U, 0x61b0d99067655c6aU, 0xc9e7659cbd1a7fc0U, 0x630417986e68a265U,
  0x39982a7d699e044cU, 0xbc830a643c6464b0U, 0xad8d94bb3633700U, 0xe13a7fa4c5ba6718U,
  0xb4db271522fb3b63U, 0x713334d4d4b2e3baU, 0xf2f7db6f874e9c15U, 0xafff76fad85e21c8U,
  0x7886dcc322c62444U, 0x8bce93195708e30dU, 0xbab091098fc5e88U, 0x28f9e7da5a8f382fU,
  0x465e56c29bfed63U, 0x7f2131c5699e1049U, 0xcf19c35f0cd37672U, 0x254da4c0bb811602U,
  0x575f471ffacd58ddU, 0xbfb903fd32e138ebU, 0xb2ea560ad5928162U, 0x783e4cb4abf98f8aU,
  0xadda55ec2fa339c3U, 0xb1069d2b253d7e58U, 0xcad9f4019850792U, 0x95cd1e9918bcf8a3U,
  0x8134d6a1211ca7edU, 0x17f1c63e2212145cU, 0x9501f7f73b237630U, 0xb5a120588b3d5e1fU,
  0x43cb18df5b0069b6U, 0x9e5045e697d4a7b5U, 0x6c321d8f276961a2U, 0x820eab933326ffeU,
  0x4c6dc661feb52707U, 0x857e22c903880d0fU, 0xfdb13c47c08139abU, 0x13f508d0a420f225U,
  0x458870386140f352U, 0x2f3724cc0aa4add4U, 0x23e561b75d6c8afcU, 0x4ffac57aadebb157U,
  0xd879cd387209430aU, 0xb3f1f559c887194bU, 0x2476dfac9c5744cU, 0x46a5cde4586d04b7U,
  0x5721f6e63bf52beU, 0xaa1db7374aaef794U, 0x3335008135e19a0fU, 0xfe1b123e59f5ca82U,
  0xad94a99d920b3d61U, 0x3a818f2d4b42061dU, 0xd0ff0b663d254a07U, 0x1aeb25ec136679acU,
  0xbac0ed67b8e76a16U, 0x3453d023822dc1eU, 0xe719bf6365845a87U, 0x9bf669e02293e5baU,
  0x52af24fda0a2b056U, 0xb70cd3b99a206e01U, 0x47d404540566e544U, 0xdcbaabb9507f79ecU,
  0xc83d0721ddaa0c19U, 0x8212e2c9156218a7U, 0xdb88a27cb9ea86ebU, 0x73ce2505628be09dU,
  0x1befaa3cf232c594U, 0xf2baaf2f2381abb8U, 0x9b5f6a1c461f3699U, 0x9fda09410f3e2b65U,
  0x971fa6be9616e0c8U, 0x56ac5409b05f9a32U, 0xf4f189734ddbdf63U, 0x604f09d70f494bd6U,
  0x4567a446f8911778U, 0x6af22aaed9772496U, 0x8e9f4317d7ee4d5cU, 0xa89110813fc2e38eU,
  0x59a25f04da1d0d96U, 0x1df32cc3058d988eU, 0x2f8db9595902dddaU, 0xc277e56b0ab9c4cfU,
  0x1ebcfdf432cfc3feU, 0xcda71cd0570819daU, 0x75f2c85da31c9dafU, 0x415124345366e146U,
  0xede1c577e1b7ca43U, 0xf25d6c5604023529U, 0x512c4a6af1812a1dU, 0x3ec654486ef53f07U,
  0x6aea57f12cd91bd7U, 0x6f1fb1b7279f2f1cU, 0x48f07fc7924b4cf4U, 0x9d0abe66e3e1c7caU,
  0x4a2b9819649e98c8U, 0xd2eee042f039fcf3U, 0x9e81d127d4a20948U, 0xdb86325603aa70bU,
  0x289c2ea3bb11a013U, 0xf5d3bd614aca4f3eU, 0xb9a425f585fc1442U, 0xb331378169ab14e3U,
  0xec786fe1c7433a26U, 0x6619209191c86835U, 0xa56afdb188e0dd6eU, 0xbe528a67094be5e3U,
  0xe008ddcf5dc83744U, 0x29a9b5335aa60bb0U, 0xf342724fc126c369U, 0x90afc70c6c4450a2U,
  0x8beb91d4244fafe1U, 0x54cbd81dd6260781U, 0x79504c95c900fe11U, 0xd6dccd99be100e1cU,
  0x38467fad03d6a6a8U, 0x5d8fae7f0567d0beU, 0x3bd30de5ea14a767U, 0xd67f14a8d84acf36U,
  0x70753af465452b52U, 0x481f72fa29d25bfaU, 0xc637df9b53d27435U, 0x1b29e5e396fd3ccdU,
  0xc4cbccdd2232f59dU, 0xfeee46fd2ea338ddU, 0xb5531929c2e7646bU, 0x2cf1eedef2136ebfU,
  0x5dbfb2c85904c5c1U, 0x33d37fe50deff901U, 0xf7f624dcc9d20b37U, 0x68eb6a0f6a519e0aU,
  0x10a004e93e78bf7fU, 0x1bcf8f394da3c19U, 0x2f8dfb0e1896a38aU, 0xcedb1446b05d7654U,
  0x8e3731da758fe691U, 0x4a8b0ce8f1391cd4U, 0x9b4746b8c970b6c6U, 0x723fa9915e26eeeU,
  0x9f6fc2976116b457U, 0xa7c6ab23c1e5ce26U, 0xa92843180cc73d08U, 0x2143aaf433fe98f0U,
  0xf6ed65120b3627f2U, 0x9af968bc3346af9eU, 0x14fa025cf0e211ceU, 0xfd4d8d1874481a7U,
  0xe116f0d2ad265ed2U, 0x3f6c4c8f1db7e0b0U, 0x5d6fb6de1164c443U, 0xef3fd9b1ff9aff3dU,
  0x7f0b3df965fbca18U, 0x89b5e1f8624692e4U, 0xb0a02cd23b32f4e5U, 0x6a4063406b631de2U,
  0xf1b889fce989e76U, 0x8f09950f2b9b01c6U, 0x7d2565517fa2ba04U, 0xe11320327e5618b8U,
  0x25eeebf782014fa8U, 0xa84d5cb8ae6cbdc2U, 0xacb3008912056923U, 0xabec9e8e83c44a2fU,
  0x3f9e17a20c1ce907U, 0x41caf9f45ef46b82U, 0x514c35ee0c560e2aU, 0xda64cc013ed2d0acU,
  0x8fab77f0f6310841U, 0x12692fb1d83a7473U, 0xa25ee997d509fcb7U, 0xa2a5f76118ec7fc6U,
  0xc5e3afd6eec92cbaU, 0xd377165f2a628163U, 0x4b90cdf0024450abU, 0xa6b8102bb2be55d3U,
  0x255ede6665df5b6cU, 0xa61ee5a04f4cd1f1U, 0x5da00b4dd76b0e49U, 0xdc01c242d531c609U,
  0x2fffffff8U, 0xfffffffafffffffdU, 0x2100000007U, 0x4fffffff9U,
  0x4fffffffdU, 0x2fffffff4U, 0x200000008U, 0xfffffffffffffffcU,
  0xfffffffefffffffeU, 0xfffffff6fffffffeU, 0xfffffffcU, 0x8fffffffbU,
  0xd00000002U, 0xfffffff400000001U, 0xfffffffb00000004U, 0x1000000005U,
  0x177666dfa29ff47bU, 0x158329d64a6d7d7aU, 0x8f09f8ad17f4f1c6U, 0x8132c1d83c9256bdU,
  0x9df1a3def52216c2U, 0xbab38ce21a6356f0U, 0x4bdf3d2163feec20U, 0xc4f001a3c73e7fbfU,
  0xf29e010bef81ac3eU, 0x47cc4248481baee5U, 0x3736644f1e9a41dcU, 0xb039f3e3a28d43dfU,
  0x52a1fd48d5ab8128U, 0x7a58f790633ef4f2U, 0x4d9cfaa66a40077fU, 0xba83fd5bcbac652fU,
  0xcc77df6517722008U, 0x5155068189f5b306U, 0x42ebbc57f2e8d794U, 0xb267d522cdeeb7cbU,
  0x32c514c881f5da92U, 0x645598d573a5072cU, 0x2468b9a091efea4aU, 0xf405b119a9942d8dU,
  0xe8537e02c865682aU, 0xbd40eaaf30c8d004U, 0x8558bdc9b6f6e868U, 0x29090d81443b6fa6U,
  0xa1c8ee5447afd96cU, 0xbef65fa86613b8b9U, 0xfd4cfca4da1e27f2U, 0x94810ee0c81af43aU,
  0xf8e23e1e5ecaf33U, 0xe911ff72de470e4cU, 0x7fa16e1b77b1a19aU, 0x92bd1e4657313e7U,
  0x58e6d0ba7ef6a314U, 0x18f2bcc3e4f1811cU, 0xd5401091c4c7d383U, 0x990c0bab5b2fc8e7U,
  0xa056e6ababc6a35fU, 0x498c435950c9cf64U, 0x531fae816664bc38U, 0xcb6369a89ca5d7c5U,
  0x8f7dea19ed2f205bU, 0xf2ca8177700766ceU, 0xc6e89f640a03b5edU, 0xcfc040b272700f04U,
  0x5d32d946bf8570c1U, 0x3d633d25646d5eb0U, 0x9ea2fade14a9c39eU, 0x741a961b0d7fc5c9U,
  0xd01c6fd5dc843c7U, 0xcd5cda5ea89237b5U, 0x6173ef4e05d36c28U, 0xe2992f87747f8b1dU,
  0x387f66f9614f36a7U, 0x7e8c279af9173fc0U, 0x450392e60b20c689U, 0x21cee1d72a550db0U,
  0x3b1cbd003e192dc2U, 0x7fd5279321cd338cU, 0x33b617bef23a7633U, 0xf9da1641ef5b2f84U,
  0x0U, 0xfffffff6fffffffcU, 0xfffffff8fffffffcU, 0xfffffffc0000000bU,
  0x1fffffff2U, 0x1ffffffeeU, 0x100000012U, 0xfffffff900000002U,
  0x5dd65f217f5040f0U, 0xbf85d2fdd31886aeU, 0x2b2ecae32700322eU, 0x92ba81bb7850a9baU,
  0x69f5f67fae1e2966U, 0xa9640310edf090e1U, 0x411c712883587f71U, 0xbba404c7f9019144U,
  0x1c34152fce89bdf2U, 0xc1de2461c68103afU, 0xa37f2a498f3e56eaU, 0x2a5c5c2cbe1a620fU,
  0xffffffacffffff17U, 0xffffff79ffffff2dU, 0xfffffed3000001bdU,
};


ai_handle g_network_weights_table[1 + 2] = {
  AI_HANDLE_PTR(AI_MAGIC_MARKER),
  AI_HANDLE_PTR(s_network_weights_array_u64),
  AI_HANDLE_PTR(AI_MAGIC_MARKER),
};

